FB
00
41
2F
A9
3A
18
A6
97
54
9C
4D
D9
72
40
BD
4D
61
61
D4
1E
9A
28
27
AA
26
CC
54
F0
BB
DD
60
6F
09
68
5F
11
F4
A2
3C
0B
6F
B0
D5
89
E8
C7
2F
DE
29
F8
1A
87
92
B3
C7
42
CE
14
22
E4
B2
F5
0E
17
D3
30
C8
A4
AE
17
23
4C
A2
D3
46
E6
22
65
7A
65
3F
F5
7E
6B
AB
FC
E9
9F
2B
4C
56
1C
E5
4C
D0
AB
B6
B9
B9
4B
1E
3D
9F
E3
BA
3C
D9
DB
58
21
28
D6
4C
17
A1
F4
F7
48
B2
F4
AF
01
F2
03
DB
FD
1F
4A
F0
4E
15
2E
34
20
EE
B2
4F
D3
1B
6B
67
6E
C0
11
F7
CA
10
CD
2A
C7
1D
BB
28
B1
FA
E1
BE
2B
1F
E1
BA
DC
19
00
F4
F7
5C
9B
EB
99
93
BB
87
59
57
52
5E
68
E5
92
47
5A
69
C6
D7
2C
A1
0F
FF
B7
FB
06
07
AB
C9
43
5E
A7
AD
FC
0A
28
0E
6D
2F
04
D4
06
97
D1
4D
2A
1D
E0
3F
17
C0
17
1F
44
DC
01
58
B2
1A
0B
B0
08
BA
22
DD
A0
FF
D2
1E
BF
60
46
3B
E6
25
C0
3E
D5
40
D4
DC
BF
B7
14
2A
56
35
2C
A2
47
93
4E
29
36
25
45
D4
E9
81
C5
BA
0D
36
E4
C4
B1
6D
EE
C1
A7
59
18
EF
A6
3B
3F
AE
6A
F3
BB
5A
E5
FD
13
C7
11
10
08
FC
18
F0
E3
FE
4C
A9
C0
F2
57
9A
A8
F5
EE
F9
12
AB
D8
5B
A0
4E
3E
06
C9
57
35
3A
4B
3B
AA
76
52
E1
51
AF
30
60
A0
51
EA
6E
64
61
33
B6
BB
A4
1E
43
9E
9C
46
1D
A5
F9
A1
C2
18
21
0E
D2
C3
0F
1B
43
CE
C4
F6
E6
D9
33
06
2B
5A
45
03
D8
E6
BA
18
03
A3
B0
3A
C8
E6
73
E4
62
3D
77
BC
5D
D1
F6
CF
05
08
6A
06
27
EC
8C
46
91
AA
B5
B0
CC
2D
1F
CF
FC
2A
23
9D
47
FF
96
CB
01
2B
3A
06
BC
FC
C5
12
31
B9
1A
D7
2F
B4
52
BA
41
FFE61841
0002B746
0000C3C3
00014990
FFDB0399
000CC23B
0005893D
000437C8
000A18CB
FFFDA650
0007CBE5
FFFBE4B9
FFF1CC62
00170736
FFFED10C
0013DEA6
000000AB
0
BD
11
16
1F
BD
E9
27
16
1D
DB
D2
12
2F
F2
1D
0D
DB
EA
25
D4
2E
12
FB
F3
1F
30
06
02
C1
FE
D6
0B
40
1D
D6
01
E1
09
3D
DD
01
DF
2B
E7
1F
EC
22
EF
00
42
ED
4F
1C
CC
F1
0C
D6
1B
0F
E7
F3
0F
F5
DB
CF
F3
30
01
F3
D4
34
3C
07
2C
EF
36
BE
D8
E8
0E
39
D7
FE
02
25
DD
D5
30
1A
0D
25
F3
3C
DF
DD
21
1C
01
22
EE
29
1F
1C
D2
15
1D
0C
DE
46
FF
ED
E3
E4
21
10
31
BF
C2
09
27
2F
E6
24
33
BE
28
F9
D8
D4
F0
E3
1B
35
C9
E4
27
27
19
C2
CB
06
05
B2
D6
21
16
0E
23
21
FD
DC
2D
DB
2B
DF
05
00
EF
DC
30
28
03
D9
0B
1E
FD
1C
F2
2B
35
F3
0C
F3
0D
0B
FB
04
11
E3
1C
10
EF
18
23
F2
38
19
FE
E7
FF
F0
E9
F1
DA
F8
00
27
D6
38
0E
DE
2E
2C
CD
19
FF
2E
13
20
F0
FA
FE
12
11
12
FA
ED
44
DF
F6
EE
0A
DD
22
FB
D9
07
E3
EC
F5
1D
00
CE
43
F4
09
17
1E
09
0A
FC
AC
EC
E4
33
1C
FF
1B
DF
3C
2C
08
CF
F0
F1
E8
01
0A
DA
06
30
E7
39
CC
13
23
E1
15
F3
DC
AF
DA
0A
08
DB
1B
22
EF
10
37
19
0F
06
0F
16
E8
F2
D8
F9
23
0F
0F
FE
E8
F6
19
12
EF
FA
E2
FC
10
12
F2
F2
EA
12
12
1E
09
E6
EB
D9
DA
F8
F2
02
0B
07
FE
00
08
F1
13
07
FF
ED
F6
03
DD
FD
0D
EE
EE
F9
18
ED
27
E8
1A
E7
2E
0F
F7
0C
05
FF
F1
27
16
21
0A
E5
1A
EE
14
D5
07
E9
FE
F0
FA
25
03
12
14
25
F5
01
03
EE
1C
07
03
E3
F7
21
D1
08
D8
EF
F6
04
27
00
0E
06
1D
15
00
F9
F9
F1
FE
F4
03
E2
12
17
12
F6
0D
07
04
11
2F
CF
E0
F4
02
F3
05
0B
17
E0
FB
00
20
0A
00
F4
33
FB
F5
09
D0
29
FD
D5
0D
20
10
ED
DB
06
D7
E0
0C
22
1F
12
E0
F4
05
F5
19
07
11
E0
27
ED
FA
E1
F5
28
06
11
D0
18
23
02
DA
EC
14
D9
04
0A
D6
F4
05
09
11
18
06
0A
1E
07
09
00
FE
09
00
14
CB
0F
1B
00
DD
F3
DC
0D
F6
0D
0B
1D
E0
0F
0C
EE
0F
F8
1A
04
08
0A
DE
07
F4
08
DD
42
1C
F9
1D
0B
F7
08
F4
03
E4
16
F8
FB
F5
19
0B
38
20
DA
EB
FF
D8
F6
E3
11
CD
ED
EB
FF
E9
FD
05
02
05
01
17
F7
1B
EC
1B
09
DC
0C
0F
EF
2D
F2
EB
1D
15
E2
E4
FC
CC
DE
07
EC
E0
E5
E9
19
EA
F7
21
1D
01
D1
C9
EF
01
25
CC
DF
1F
03
E4
BE
F9
FD
C3
F5
DC
ED
E6
26
CF
F3
0D
20
30
0F
D9
1A
43
C8
EB
20
E5
16
1E
D1
0A
19
29
2A
FD
18
F4
D4
DB
3A
DB
0B
E7
C5
24
EC
C1
E8
D1
26
22
04
10
DB
2E
FC
13
A9
C1
18
0F
F7
D0
1A
F7
00
F5
E1
D1
18
43
21
34
2A
0B
D1
0A
10
EC
DD
04
19
E5
F1
07
0A
DD
30
E4
EA
00
FE
03
BB
B6
D3
F6
23
DB
ED
1A
08
F2
16
0E
AF
E5
E4
52
E1
E2
03
2B
23
CF
29
05
F4
04
E6
39
F8
20
BD
02
1F
40
25
DB
0F
35
0E
52
08
12
DF
03
DF
FB
17
25
01
43
DC
2A
12
16
CD
F3
ED
1F
3D
17
D4
17
D7
08
26
3A
15
07
D2
14
E1
16
16
2C
FC
0E
24
0D
EF
F3
0C
16
DA
29
F3
F9
F8
30
F0
34
F1
E4
F4
00
0D
05
FB
0D
E2
13
26
E2
F9
D5
0A
0B
17
03
E4
09
EE
10
E8
0D
E1
2A
DC
D1
16
EB
1F
37
EA
12
E1
3E
18
DB
3A
12
E5
ED
1D
E1
2A
C9
ED
2A
0E
E5
03
05
EA
C5
11
B2
1F
EE
FE
D1
C7
0D
07
1B
DB
BB
AF
E5
39
A8
D5
BB
F5
DB
2E
DA
FF
F8
1C
21
10
FA
F0
2C
14
D5
D4
E3
FF
C6
1C
ED
CA
23
33
35
FA
E7
F3
18
E9
DC
F8
02
FE
E7
25
FD
E7
10
09
E7
CA
EA
F4
EA
F7
36
FB
FB
15
1A
DF
E5
E3
E8
0D
EE
3D
E1
E7
13
06
FE
1B
FC
EC
FC
ED
25
0B
2F
D1
1B
E3
D8
F6
06
0E
FA
F1
22
31
DF
14
EE
08
F6
E7
29
06
ED
27
DB
F9
2C
C2
4A
2F
09
F9
CF
12
15
F8
F8
1D
1A
F1
0A
C0
FF
29
DA
F7
FE
2E
46
FD
30
F1
FD
AB
E2
D2
D1
19
E2
FA
D2
E2
29
13
03
28
05
0B
D7
CB
39
13
0A
F8
39
F6
E7
2C
29
18
D3
2F
FE
E7
FC
0C
1C
E5
2B
D2
F1
E7
E1
FB
FB
F6
41
FC
F2
09
E9
D4
02
16
F9
C3
E2
1B
13
F2
09
25
06
F2
CE
05
1E
F0
24
0D
F9
FC
22
FB
0A
07
23
17
18
1B
E9
1D
0D
CD
FF
18
1D
FA
2A
F1
00
F0
FE
0A
E5
21
F7
E7
F9
FE
11
E4
19
FE
05
FA
EC
01
DA
EF
11
FC
03
FB
F4
12
11
11
E7
DE
FF
08
E1
F0
01
E8
0D
DC
10
0E
F8
E6
FB
E7
0E
F5
18
14
E5
F4
F7
F6
04
25
1B
E6
08
FA
E7
21
EB
D4
03
1A
27
D4
FB
DB
F4
EB
FC
07
0B
F1
05
02
FF
E1
11
FC
00
05
12
23
FA
F8
E6
20
DB
EF
F8
F3
05
02
0C
EC
F9
E1
E0
2C
04
1E
F3
09
FD
1B
11
0C
E5
D3
DF
0F
09
F5
F5
DC
10
16
2B
0E
E4
D4
EA
DB
26
D7
C8
FB
18
16
E4
EA
E1
F3
08
D4
0C
E8
E1
10
2D
27
CF
19
2E
D6
1A
DA
08
DF
F0
01
F1
CA
E6
10
39
E3
27
11
18
F3
B4
27
0F
E6
3B
E7
28
F1
C9
15
D8
27
46
B2
04
38
D2
CB
11
CB
33
C8
EA
4B
00
EF
20
36
10
1F
17
07
26
2B
E6
37
17
29
02
F9
F2
EF
15
DC
D8
23
CC
F0
CB
21
2F
F7
E9
E0
00
F1
DC
DF
C2
DA
C9
FF
F8
E5
FF
43
13
DA
5F
C1
FA
1A
2F
15
CB
E5
3F
C7
17
1C
19
2E
FC
D4
40
05
EB
42
F0
E9
09
0E
07
E3
F8
1E
ED
EC
D8
17
19
1A
0F
01
16
C7
F2
E6
05
D1
EE
07
E6
FF
E4
09
FD
14
F0
0C
21
D7
F6
EA
15
CE
00
D7
FF
FE
F4
01
DD
1D
E6
15
E9
12
FB
ED
02
12
0C
1D
06
EF
EA
F4
1B
13
12
04
F0
BD
1A
0A
FC
CA
30
0B
01
F9
E8
15
E6
EB
09
18
E5
B4
D6
0B
C9
E4
10
F7
0D
D2
EE
04
E0
09
EF
1B
E2
C0
12
17
FB
FD
02
12
06
10
EF
18
0A
E5
28
EA
DC
DC
02
08
D0
F5
01
FF
07
D8
F9
0F
F0
DD
03
06
24
E5
08
FF
D2
EF
26
EC
D6
12
E6
00
10
0D
DC
16
1C
EC
F7
C7
F0
D7
DB
E3
EB
0A
1D
1F
1D
F6
23
17
D8
D8
2A
17
23
E5
DE
E1
1C
F6
FA
FA
FE
F8
DC
F3
D6
22
F0
10
3D
DE
D4
26
E3
22
32
1B
1C
10
F8
E5
E6
F2
FB
B6
2E
26
D1
1A
1B
0E
F4
2E
00
F5
39
F2
00
EA
29
DD
FF
20
1E
1A
00
FE
EC
FF
23
F2
03
FD
F1
E9
FD
D7
F8
0C
BC
FA
E7
E2
DA
1A
D8
E5
1F
0E
1B
DC
D7
D8
F8
F3
0C
D4
E2
14
12
12
EC
D9
1B
E6
01
F0
14
23
F0
E1
1B
EF
EF
E8
E8
2B
EF
F5
F8
06
D5
24
30
1A
F5
22
E1
E9
0F
14
11
F9
1A
DB
F5
EC
ED
F2
1F
D3
DE
E9
1A
CF
08
0E
1D
F0
D2
F1
16
16
FF
F4
D9
08
EA
FD
FD
00
02
2D
20
F7
F5
EC
E8
23
EE
01
D7
04
CF
07
D9
03
EC
28
25
F4
E9
E9
28
FD
EE
1D
FD
1F
F7
0B
09
1E
DC
FD
07
05
E9
0D
05
0A
FA
E9
D9
23
E3
EB
01
1A
0D
27
EE
EA
EA
10
22
25
17
03
09
F2
F1
E7
03
2C
ED
F4
DF
14
08
E5
27
1F
1A
25
E8
2D
06
06
FB
FB
FC
01
04
F5
DB
0C
05
F9
E1
ED
FE
FD
32
F8
E0
20
21
0B
15
32
11
09
FD
05
EB
E8
E4
11
EC
27
C0
24
20
18
E3
01
06
E0
FF
DC
F3
EC
E1
E2
EE
CE
1E
3C
DB
1A
D5
0F
E5
06
C0
DE
02
24
DF
34
27
29
F6
D2
D0
2C
0A
F8
E2
CF
ED
F8
0E
17
E8
E4
31
27
CC
0C
1E
26
C8
C8
F1
20
09
D6
D6
2C
BB
1A
B9
27
A7
EB
EE
FF
FA
E4
DF
CB
E1
16
25
DA
DF
1C
C6
D9
AE
0A
26
FE
AF
E0
C5
F2
27
E7
25
C6
F6
E8
05
02
E3
1C
06
A8
B2
E4
05
C5
32
DB
DD
0A
24
17
2D
B2
B0
E6
1D
CD
E8
F6
F3
0C
D0
03
12
43
D1
F4
19
CF
E2
DF
EC
15
F3
0F
10
ED
C1
35
F2
0C
17
33
36
0A
27
D1
2E
0D
15
FE
0A
0A
27
39
06
F3
25
EC
11
DA
1A
17
F4
DE
F2
F0
0B
E2
12
E3
04
E6
FD
F7
16
D3
FE
EE
29
ED
EF
F9
FE
03
00
07
20
F5
0A
F8
27
F7
FD
03
14
FE
04
E0
E3
DB
E2
0F
16
0F
FC
00
EF
D9
04
EA
00
F1
EB
F2
F7
E0
04
DD
FC
E5
FB
F5
E9
EC
EC
FB
1F
D9
16
F9
0C
0B
E4
F8
07
0D
F8
FE
01
E9
DC
F2
1C
0C
ED
14
ED
14
FD
D9
21
22
28
06
E6
FD
08
18
11
12
FE
F2
F5
F3
EE
FF
0F
FD
EA
21
F0
10
14
1B
2D
F1
0A
20
01
02
EE
03
F4
F8
2B
0F
0B
1F
CA
33
2F
0D
EE
1D
FB
F2
09
D8
1D
06
2C
35
0C
1B
19
2B
2D
F7
27
0E
16
F7
14
00
F4
F7
D9
14
F8
12
01
F1
02
E8
F3
E5
EA
07
04
2C
EB
06
FF
EA
2D
0D
2A
04
06
03
FD
D9
07
E2
E4
EB
E3
37
25
22
12
10
F0
F5
D6
F7
EF
20
0F
E0
06
3A
25
EB
1A
24
18
C2
28
17
0A
D4
E9
E0
04
3B
CD
03
07
C0
DF
C4
FC
D8
42
DB
2E
F6
1A
ED
1C
DE
E1
EE
0D
4B
E4
2D
08
D6
1D
FB
12
F8
D8
E7
FF
1D
24
06
10
EC
0F
E9
E4
AD
26
F8
0D
BA
EE
0D
16
01
DC
30
16
CF
10
C5
D5
D9
FE
CC
05
DE
F2
04
D5
DB
BC
10
F6
12
00
E8
E4
F5
F9
03
F4
F7
FC
FF
F5
FA
03
15
F8
DF
23
E6
EA
EA
20
0A
04
F1
0B
25
19
E8
F9
EA
02
14
28
0D
E2
16
FB
13
EE
E0
22
E8
F9
EF
D2
F1
1C
15
E9
D1
E2
1F
05
F2
E9
ED
1C
E0
E4
F2
24
FB
DF
E4
FE
16
E3
E4
0B
02
05
16
DA
2C
1B
F7
09
03
2C
01
19
EF
11
06
1A
D9
EA
F6
20
0A
18
FC
CD
D5
03
FA
1C
DC
07
0A
04
E2
D9
EA
FA
FF
C5
02
1C
FD
1F
F9
DF
EC
D9
CF
29
F1
E3
04
E9
32
12
DC
EA
13
E7
C3
F6
D0
E2
EF
02
EF
FB
DA
10
23
36
EB
E4
C6
07
35
F6
17
38
32
1B
FA
17
31
FC
D8
06
EC
00
F7
FB
1C
CB
FA
F8
17
15
19
07
36
26
F7
0D
30
0A
11
05
11
0B
1E
C6
E9
13
0D
1D
04
01
ED
DE
1F
1C
17
1D
F9
03
F8
31
19
EF
08
DA
FE
26
E1
10
2B
CE
2C
DF
0C
08
F9
F4
F9
06
E5
DF
F1
D7
F5
DE
11
E4
19
1B
F5
D3
D5
FF
11
0D
CC
0E
CE
EA
ED
ED
1D
DD
C2
FF
10
E6
1B
05
DC
D7
ED
16
E7
FC
06
F9
05
17
ED
E2
EA
0A
02
CD
01
FC
15
E4
F0
DA
10
BF
EE
E2
CA
18
D4
D8
23
C1
03
F3
0F
1E
E1
C2
EB
D4
05
BC
AD
19
E4
DE
08
F1
0C
10
D2
07
F7
FE
D7
19
27
DE
DB
15
D9
13
16
F8
23
DF
EF
12
03
11
0E
ED
17
F6
04
29
E7
FD
EF
EF
F8
ED
3D
0A
1D
D4
D9
15
EF
03
22
D8
DB
E3
E4
DF
F1
DC
EA
C7
E2
24
F6
07
CA
23
DB
07
E8
D4
09
EE
01
AF
29
18
E2
06
0F
DE
34
1B
F2
E8
D2
F7
2E
F7
FD
F6
2D
01
DA
D3
28
E7
F0
E7
2F
27
2B
01
02
B9
E4
03
CE
FB
27
1E
E0
CE
DD
1D
D0
D2
DE
04
EC
FC
E1
DD
13
06
1A
F3
23
05
19
F9
1A
DA
F6
FE
07
17
C9
16
16
1E
E6
C8
02
F7
EB
F0
0F
14
12
0A
1F
2A
15
BF
DC
1C
3C
BB
DB
01
CC
24
EE
FC
3C
F2
E2
FC
0E
EB
E5
C3
47
1C
F2
31
D3
D8
EB
3A
CD
E9
D9
16
3F
E1
16
B7
2F
F1
20
F9
E0
00
CE
E1
CA
03
FA
5B
15
D1
1C
07
FD
B3
FB
F8
CD
E6
29
CC
D7
CF
01
55
EA
00
10
1C
61
00
0F
04
24
FD
DF
EB
BB
F5
00
29
DD
19
1E
BF
03
10
14
F9
3E
14
C6
05
B7
F6
32
24
FF
0F
02
0E
41
DC
FD
30
D2
23
1D
F1
22
D8
21
1D
CE
D7
10
F8
3E
EB
32
0B
0C
1C
AB
E7
E5
CC
1B
C4
F8
E5
02
D9
39
0B
10
EA
D4
09
01
19
D2
FD
20
06
0C
E4
FD
00
E7
10
E9
C7
D4
10
ED
DD
F9
05
29
B1
0B
B2
04
0B
DB
E8
F3
10
DA
E2
E9
3D
25
F4
F5
C7
E0
F6
2F
D4
18
08
F6
DF
F6
34
22
20
DB
FF
FF
35
3C
E7
0F
10
02
CD
0C
02
D9
CD
FC
D0
0A
05
2E
46
24
F7
26
3B
EB
17
31
10
0E
2D
18
F9
15
D9
00
4F
1C
F0
FC
F5
26
40
0B
09
24
38
21
FF
53
EB
D1
F1
F4
E8
C2
16
1A
F0
03
E7
16
13
04
C5
20
ED
FC
ED
02
C9
FF
DB
42
36
1F
D6
0D
EC
06
0A
CF
1F
29
D9
15
B5
1A
1B
EF
0C
FB
10
FA
08
25
36
E0
DC
DC
FE
ED
0B
0D
E4
E2
21
0F
07
07
F3
1F
D6
04
F4
18
F2
E7
03
11
EE
27
F5
02
F1
F5
01
0B
E6
E4
08
0A
FE
01
0F
FF
01
F4
EE
1C
16
E7
E9
E7
DC
ED
E3
18
F1
10
E6
0F
EE
03
E0
17
E0
17
F6
E2
D8
14
14
16
09
FE
0F
DE
E0
EA
FB
E2
FC
EC
0F
04
E4
14
EF
F6
13
EF
F6
ED
16
E7
F0
F5
E1
D4
1C
14
10
22
DD
0B
14
F7
10
05
02
F7
EC
0A
14
F1
03
F1
DA
19
08
03
F2
0D
FF
F8
F9
FE
EB
EC
EE
D5
F1
F1
ED
F8
D2
E8
0D
08
E6
F9
3B
FB
D7
F9
FE
D1
0C
EE
15
2C
DA
E2
06
15
E9
04
FC
09
01
08
29
11
E5
E0
35
24
20
32
00
15
06
E6
E5
27
F1
28
EA
F6
16
EC
0F
21
0B
E1
05
20
DD
2A
19
0E
28
3A
26
DA
E2
D1
14
DD
1C
EB
E9
0D
F4
1A
06
09
1C
D0
F9
21
1F
FF
EA
F1
EB
F9
1F
01
EB
17
D8
41
28
28
F0
03
35
DC
CC
D0
D5
1C
39
34
F7
1A
CD
59
EC
D7
26
D4
20
01
00
17
E4
0F
26
E3
13
F6
E8
30
E3
11
FE
10
DF
2A
06
E0
BA
FB
0F
3E
22
DC
CC
17
D9
C3
2F
D2
D2
29
F8
F3
FF
1E
2F
2E
E8
23
EA
DF
07
C7
05
0C
F4
F6
BF
0B
E0
E4
17
1E
14
D0
E6
3B
DB
17
25
1E
E9
CD
E3
ED
14
24
03
16
F4
0E
FE
F3
EC
F8
F3
E5
0B
F8
EB
1B
29
EF
CC
2B
20
12
04
FD
10
04
0E
3B
E8
17
0A
09
E2
20
03
EA
DC
09
E9
E4
04
09
E9
33
28
D9
EA
E5
05
08
B9
FC
B0
15
02
F1
12
16
CF
F3
ED
D5
15
EC
EA
01
09
F2
D3
1B
F6
CC
FB
EF
D4
F5
EB
00
EC
07
FB
15
DB
07
C6
1A
23
CF
20
10
CC
22
16
E5
12
EA
DE
28
E9
EA
B4
13
FE
05
F8
EC
D8
E9
EE
DD
EF
E4
10
30
05
F7
C9
20
F2
C8
D0
FD
DD
F9
0F
36
08
DD
10
14
E9
24
17
0B
0F
07
36
1A
13
2A
05
03
20
F4
14
D9
C9
EA
FF
03
F5
C4
E4
D5
CD
FE
CF
11
12
08
08
FE
BF
0F
00
DF
F2
D0
06
0C
B2
E7
17
0C
DE
F0
E9
1F
0E
F7
0D
25
ED
D8
1E
22
FC
13
06
02
F5
F1
F6
E0
DD
0F
16
E2
14
C3
21
F2
FB
F5
07
C8
E7
03
0D
E4
CF
0B
DE
22
FB
FC
2A
EF
AC
01
16
E6
14
FA
EE
12
F4
F1
2C
24
E7
26
1A
24
3E
FB
04
11
14
F4
1A
05
E2
F0
F3
FC
E8
1E
2A
ED
FB
0E
F6
C0
06
ED
42
E3
EF
11
C6
2A
27
13
EF
25
F6
FA
DE
C5
2B
08
0D
E9
FE
EE
FC
1F
19
FF
02
0D
DA
14
ED
13
07
F9
05
0E
E1
12
E4
E2
E4
F8
00
01
FE
F7
FE
EA
F1
FA
EF
0B
EB
06
03
06
00
04
1B
F2
0F
F6
22
DE
F9
E8
23
EA
FA
F1
1A
DC
1C
EB
E2
0A
E3
1B
FB
DA
06
F3
00
E1
D6
1D
04
F4
1A
27
06
07
D4
E7
E1
F9
FC
DA
08
F8
18
09
08
EF
E3
2A
18
E9
EF
14
F1
CF
E1
F3
0B
E3
F6
EC
0D
E9
12
D8
04
0B
0D
03
DC
EE
F9
0B
08
D3
00
D2
E4
06
E6
DB
14
F9
EC
E6
D3
D8
E7
FE
F8
E1
EA
FE
0B
0C
F9
21
33
12
15
F6
F9
F6
E7
EF
F4
D7
FA
3B
FE
2F
DE
E9
E0
04
E1
D5
CF
B7
04
25
EB
CB
E8
37
0D
1C
F0
CF
10
0D
B5
D6
04
85
0F
24
FE
CE
E3
30
D5
B2
2F
E2
14
15
CD
10
03
DF
EA
47
D6
45
EE
0D
B1
E7
23
09
B9
E6
E1
08
00
EF
D6
FE
29
DF
EC
3E
BD
E0
04
1A
C3
00
DC
28
16
EB
27
10
28
0F
40
EF
DD
EA
2F
30
B7
DD
FF
CF
3E
CF
F9
14
EE
4B
2B
3F
FD
DB
FA
F7
10
EF
1F
EA
2F
F6
F5
DA
15
50
36
D9
D0
4B
31
F9
B7
BB
E2
E4
42
1F
10
DD
CF
3A
64
DE
1F
F0
0B
E6
A7
0A
F4
27
45
F9
DD
2C
12
E7
AF
ED
D9
DC
D9
F0
14
2B
DF
DC
D1
39
28
F9
CD
02
FD
39
1E
C8
D8
B0
45
D6
14
ED
1D
EE
EC
32
F9
FD
3A
0B
E9
EE
DF
24
01
C1
AC
0F
23
1F
E3
29
C5
21
BD
AA
3A
FF
3C
81
28
E7
38
C7
E7
1C
31
D9
26
27
A4
14
34
EF
15
FD
06
ED
00
2F
1B
E4
34
E5
CB
DE
28
25
D0
03
F3
2B
1F
40
ED
D3
31
0F
F6
1A
26
CF
BB
C6
F6
2E
08
BA
D1
13
10
E4
F7
02
38
2C
08
FA
DE
07
1F
18
FE
EB
38
29
39
DE
F2
DB
E8
BF
0F
25
28
EC
B7
17
3E
18
39
21
0C
11
43
FD
02
E5
E6
22
DC
EF
D7
27
FA
F8
11
14
05
10
09
0B
F4
0B
E1
19
2B
1E
D0
EB
DA
F5
EA
D4
CF
E0
2E
E9
E6
F2
ED
07
3D
EB
E3
2F
DE
ED
2A
F4
FC
FB
FE
C8
FD
36
13
E3
F6
E9
E1
DD
01
04
DC
CD
14
E5
F4
CB
E6
E3
FC
DB
F8
01
F5
F0
1F
EA
15
E9
F9
08
12
D1
14
1D
D6
FF
16
4A
08
28
E7
0F
F3
DE
05
06
01
12
18
33
27
F9
E1
EF
14
E4
FB
D7
11
07
0A
02
E1
C6
D9
B6
DF
FB
D6
D8
D4
0C
EF
D4
DB
F0
BA
E9
F4
B4
D4
1F
07
CE
1F
0E
E3
15
F0
28
F1
00
D3
FE
14
ED
E6
32
EB
F1
E8
DF
FA
EF
F6
0E
CD
0C
E9
F2
02
D7
DC
EA
DF
13
27
F2
EC
FE
F6
10
ED
0A
F2
F9
E1
05
F0
E6
04
E7
14
1A
30
CD
17
F8
07
00
FD
05
C8
13
1D
DD
07
15
15
E9
FE
FA
D7
E9
CF
05
0E
CD
10
EA
F3
0B
07
01
07
E3
1D
DA
21
00
F9
01
E4
0F
16
E2
0D
F9
02
CA
09
E8
00
C3
EF
04
1C
25
E7
20
FC
F8
26
21
17
16
D6
08
FA
EE
D5
07
EE
08
07
E3
09
E5
0C
DB
E6
2C
15
26
E6
1D
F9
E9
0E
25
0A
14
01
0B
23
04
12
F0
EA
15
07
0B
E7
22
0B
01
D3
20
1B
D0
E7
F5
04
1C
0C
E8
E1
FD
F7
F5
0B
F5
DB
15
D2
C3
0E
1A
23
02
EB
EF
DC
31
14
C5
E1
12
21
FF
19
A0
EE
12
14
21
F6
34
C3
17
D9
D9
A4
0E
14
22
2C
E7
20
F1
0F
17
41
E4
31
C3
04
11
40
E2
DC
D1
0E
23
18
E5
D4
E5
B8
E8
E7
E0
E5
CA
37
09
37
27
F8
C3
0E
FC
08
D9
FC
F1
B6
29
E7
F8
E3
F3
41
C9
2D
31
0C
EA
F8
DC
BB
4B
28
1C
1D
02
FD
3A
F3
04
46
DB
06
31
1A
FD
41
D0
CE
D6
C9
03
2A
38
E2
07
FB
C6
13
C4
D6
26
F4
3B
DB
1C
15
EC
FC
DC
34
FA
F4
34
D8
1D
C3
ED
20
ED
CF
EC
09
1D
02
08
0A
E1
12
12
03
23
13
F4
05
09
F5
FA
EC
1D
F5
04
10
07
29
02
F5
F0
28
07
D9
FE
D6
07
0C
E4
03
F7
D7
F3
EA
F7
F2
F3
E1
1E
F1
16
D8
DF
29
EC
1A
0E
F5
F6
DC
E9
21
ED
05
1C
16
F0
C4
26
0A
1D
07
0C
D4
F2
E0
E4
F2
1B
FF
22
C2
EC
B9
23
D4
DB
FE
DD
DC
F2
27
EF
DF
C0
E6
DE
EE
1C
D1
F3
16
D8
FE
04
F2
E4
0C
F7
FC
ED
FF
10
E5
FA
CD
FB
FB
FB
19
FF
F1
16
DB
D5
01
DA
EE
EE
EF
11
C8
23
13
0B
08
EA
D1
19
FF
17
F4
15
EE
EC
FD
F4
D8
F4
E8
D7
FC
EA
F1
E4
F3
18
02
21
0F
DF
0F
0A
F6
E1
D2
02
F5
10
11
F3
18
10
0E
F8
E4
EA
0D
11
06
18
FA
0B
CE
0F
0B
E4
F0
12
FF
06
12
02
1D
15
0D
1C
F5
03
0E
06
FD
EC
F4
05
D7
12
18
F9
19
27
03
19
03
05
E1
E1
02
EC
04
14
CF
21
1B
06
F4
FF
E2
25
EB
1E
12
E9
20
F7
2D
DF
C9
04
F3
1D
1E
01
F7
23
0D
EF
BD
2F
E6
DB
E9
E8
E5
E1
15
08
2D
20
FA
0E
20
E4
0B
1B
FF
D8
1E
15
E4
EC
14
17
0A
2E
CF
29
1B
DE
FF
17
D4
15
05
E3
DB
27
F1
FFFD9A32
FFFD0BD0
FFFD1B1E
0002D64C
0006E7A7
00013FD7
00043B26
0002C3BE
00051C23
000971FB
00073EF1
FFFECB25
000E9D5E
0000AAF1
0003CB03
0009ABD8
0008FFC1
0008897E
00086DFC
FFF9A1FD
000ABCDE
FFFE93DE
00075AF2
0000C976
000BCF7D
00091652
FFFF76EA
001306F5
0006AF1F
000697E3
000A2A05
00005D15
000000DC
0
13
FF
FD
EA
F4
02
05
FE
F2
15
F3
FF
F4
E9
F3
F4
14
01
12
EE
F6
F3
05
F6
F3
07
FF
1D
01
DB
F6
FF
0C
02
F1
EC
FE
ED
FE
F5
FB
F2
09
FB
04
FD
DC
EF
F6
F6
02
07
EF
FB
F1
EE
FB
ED
09
0B
E2
03
04
EC
0D
04
FB
EB
13
0D
1A
E3
0A
FA
F2
1B
0A
EB
EE
05
FB
0C
0B
0B
0F
05
08
F0
F4
F8
15
0C
00
FB
FE
01
E9
F8
05
F0
0B
FE
F7
F6
FA
04
F5
F2
12
E6
0A
F4
03
EE
14
FA
0C
F4
0A
E6
ED
F9
E3
FD
FE
F0
F7
04
F6
09
03
F0
FC
F8
FB
FD
0B
05
F3
FA
16
E5
E2
EA
FD
02
F9
F3
01
07
02
11
F1
0B
01
F9
EB
FB
F8
F9
F0
FA
00
F3
FC
FE
03
F6
06
F7
00
19
08
0E
FB
05
F4
03
FC
FE
19
11
10
EC
F5
0C
F9
01
FE
EF
F5
08
E6
0A
04
03
EC
00
0A
EF
F4
10
E4
0C
FD
E8
FD
F2
0D
EB
FA
0D
00
FA
0B
EA
FE
02
E9
F4
0D
E4
F5
0B
FA
0B
02
F9
06
F1
08
FC
FE
F0
01
EC
00
E0
E8
08
F0
0D
F5
FF
F0
EF
F5
02
01
EE
ED
15
F3
01
0C
0B
FF
07
0D
E5
EB
FD
FA
EF
02
ED
04
17
07
06
0B
FE
EC
0A
EB
05
0B
08
07
E0
01
E4
F9
09
F5
0C
02
F2
EE
F3
01
25
17
E6
16
D5
3E
C3
1F
0A
02
DD
E6
2E
FF
10
0C
09
15
08
29
25
1B
F5
E6
12
FC
27
3E
ED
21
29
CF
FE
FF
D8
0D
04
13
11
08
25
09
21
D9
07
C5
0A
F6
05
EB
F4
2C
D3
BD
10
0B
D6
04
17
17
12
0B
2F
06
F0
FA
D4
E0
25
EE
0D
F0
25
0E
E5
D1
16
D1
0D
FF
20
D4
01
3C
E4
F6
16
BB
EF
05
E6
E7
1E
10
10
1F
04
3B
F2
14
E6
FB
ED
3E
05
05
16
F1
0C
CC
0C
D0
18
E0
DC
F7
01
E2
EE
0F
E9
EF
F9
FC
DE
18
21
2C
CB
1E
DF
2F
04
00
12
05
ED
0A
F9
E5
23
F8
E2
17
20
25
13
DA
2A
CE
13
E3
05
E0
EE
25
12
FF
E4
FC
FA
F0
EF
DC
11
07
2D
DA
FC
00
E3
07
10
CC
23
0C
3A
FB
0A
10
E0
26
F8
19
F8
FD
FC
28
12
DF
D1
1A
15
16
D3
FB
3A
17
EE
37
E0
F8
EE
B3
39
E6
E3
F9
FE
F7
15
E3
EE
F5
D9
0D
FB
08
E4
33
0F
02
DA
24
EB
38
06
FF
F2
D5
00
1C
E7
1C
FE
05
12
1B
14
11
24
2B
03
E1
34
DE
13
E6
13
1F
15
0A
08
F4
CF
22
EB
00
FA
CA
26
DA
FB
01
04
2C
1F
D6
1E
FA
F3
01
16
08
EA
E3
03
EB
EF
ED
0C
2B
EA
12
F7
2B
F4
04
15
33
F6
F5
01
07
EC
06
F1
30
DA
FE
FB
01
F4
02
FB
04
E5
EB
19
D6
18
14
F9
DA
08
ED
E0
E5
FF
21
15
F5
FD
1C
CC
F0
29
02
17
EF
E6
19
12
EE
DA
C8
10
03
F3
F6
F5
05
EB
F3
27
F8
D6
E3
FF
13
FD
24
17
14
0E
0E
0C
23
11
1B
E3
15
0C
FA
11
EC
E2
07
FF
FA
C2
11
13
E0
EA
20
25
E0
DF
FB
E0
00
08
1A
E9
FA
2B
FD
E7
E9
02
1E
F2
EF
08
FD
F3
11
FC
13
02
F4
EC
FB
F4
CB
17
09
13
09
02
02
F7
D2
DD
1E
EF
F8
08
EA
F1
EA
E1
2C
18
17
05
1E
EB
D9
DE
03
ED
02
07
13
E1
F4
22
14
F8
09
E4
0D
08
F6
FB
EF
E7
1D
24
D2
E5
F4
19
14
F0
00
25
06
1A
16
15
05
FB
12
17
09
10
F2
2D
DB
DE
0D
04
22
17
14
06
E4
D7
E5
23
CC
10
22
F4
EE
DF
06
DD
E6
10
2B
F0
F7
0D
02
F3
D2
DF
E8
DD
F2
1C
F3
FA
FC
E6
1B
07
F4
16
E4
17
09
E9
0A
04
1F
08
DC
1C
F8
18
0C
F5
ED
20
E1
02
E8
F3
DF
E9
F0
F6
F7
E5
16
E1
11
05
FE
F1
FE
F0
0B
25
24
0B
F4
FD
CA
07
F4
FF
E9
FA
D8
13
03
E3
EA
0A
E8
F9
08
DD
0D
0D
1B
05
15
1F
00
FF
09
0E
FA
F6
0A
F6
E6
0E
DB
DF
F7
E8
E8
09
F6
F7
FD
01
08
E6
FB
00
02
11
FC
18
15
EF
15
FE
EA
DC
F0
EF
08
EB
F7
F2
EF
10
D9
05
02
F4
0C
07
F4
03
F8
15
FE
10
F9
EC
16
1E
F7
16
09
17
07
FB
F0
FD
F7
15
05
FB
20
0F
EF
0B
E8
E2
FA
ED
F3
06
0C
F0
03
0D
FE
09
1D
11
16
0D
FE
23
24
0A
FA
13
F0
0D
17
EA
EF
F9
FA
19
E8
F3
00
0C
E7
0B
17
1C
0D
EA
0C
E2
18
FD
EB
F4
06
ED
10
E6
FC
0E
EE
17
EB
00
EA
F2
F4
04
EC
28
FE
F5
F2
06
0A
EF
17
0F
ED
06
06
0D
FE
FB
1C
04
13
12
ED
12
13
05
FE
F2
04
EF
00
0D
E6
0E
08
07
00
04
F5
F1
01
03
09
FE
00
00
08
0C
05
EA
E0
F0
EC
01
F3
EA
19
0D
06
06
03
E9
FE
0F
F9
F7
0B
10
0B
FD
EB
F3
FE
F7
02
18
F4
11
17
FF
F9
FC
10
18
06
FA
0C
03
FF
00
FD
F9
09
E6
F1
F3
0D
F7
EF
00
FB
02
EF
02
09
FC
15
02
03
06
FA
FB
1E
F8
0D
E7
16
20
FC
FE
F8
F0
F4
19
EC
01
F6
0A
14
E2
0B
0C
07
13
03
0F
08
F1
0A
EE
DF
F6
15
F5
F7
08
F8
F7
04
22
E0
EC
18
14
09
0D
FB
D7
FE
13
0F
EC
18
F5
EF
F8
DB
12
16
EF
ED
E6
0C
14
FB
0F
09
13
E1
14
EF
EA
FD
FB
FD
FF
E9
0D
EC
DF
EA
12
CF
E3
ED
FD
07
11
06
EA
F1
10
02
E8
05
FF
03
E6
01
12
E4
E8
13
01
21
03
FD
ED
D2
0E
07
15
EA
EB
E7
15
E5
F9
F0
ED
01
0C
F7
00
FD
FC
D5
DF
09
F2
15
09
28
F5
FA
0A
12
EC
EA
FD
F6
0A
17
00
FF
12
0C
0F
0F
F1
E9
07
08
E5
E9
E7
05
EE
F9
10
10
F2
F8
F2
04
DC
E8
F7
E7
03
F2
F7
EB
FE
14
F0
EE
03
F5
05
F3
EF
F5
FE
10
FF
D3
F9
E5
04
19
F2
0F
05
1A
FC
F9
13
FC
08
F0
0E
18
E4
DC
E1
E9
F1
ED
14
D4
0A
D9
21
F6
16
FA
F8
D2
04
EC
03
0A
ED
E7
07
19
04
02
04
FF
F1
F8
FE
13
07
09
E6
07
F7
FC
FC
02
10
15
E3
0F
04
F8
10
D2
F7
09
F4
08
F8
08
0B
EF
1A
0D
E4
13
DA
1B
07
03
0C
EE
DE
20
E1
F6
F4
D1
1C
0B
E2
1D
10
F2
E3
BF
0C
03
F1
0C
0A
F2
08
13
11
E5
19
FF
0B
18
26
1E
20
B5
05
FC
F3
E1
FC
B3
03
D7
EF
14
29
0B
00
DF
FF
08
04
FF
18
01
12
2D
EC
DE
12
EA
E2
13
D8
10
21
1B
53
E1
E8
E9
04
E8
0C
D0
25
DC
3F
E5
12
29
F8
EF
29
10
0B
DA
2C
1D
FE
F1
D4
FC
21
0A
EE
04
2B
0C
33
EB
1B
2F
E6
12
FB
FA
20
E7
24
E1
0E
17
F6
D9
FB
FF
2F
11
01
0F
06
F9
18
1F
ED
F6
24
0C
03
E4
05
01
FA
FF
FB
CE
18
E9
EF
04
1F
21
0A
09
E0
06
E5
E3
18
EB
FA
00
23
FE
10
12
2D
15
FD
D3
1F
FF
23
1D
EA
DD
EF
1A
DE
0B
25
FC
0C
DB
E2
00
01
04
F8
02
09
FF
09
FF
F7
12
12
0D
1D
FE
F1
F7
F3
14
2A
15
DB
15
05
F7
00
05
0E
05
1F
DB
F4
1B
F6
E3
26
ED
F4
1A
FA
CD
F4
33
ED
EB
28
05
05
FF
22
E6
D6
FD
0D
DA
21
E0
F5
07
17
EA
D8
D6
30
17
2C
16
F8
11
D4
FF
00
D9
12
D5
EC
DA
19
E1
22
20
DE
26
32
19
ED
04
D3
09
E6
EB
20
27
09
01
05
E0
F8
24
FA
2D
10
09
EE
F4
CD
EF
0A
22
06
07
09
02
09
FC
EF
09
E6
F5
F9
EB
11
01
12
07
03
D7
E8
2E
FD
21
E1
1E
0F
12
F7
F0
F7
0C
F4
E7
0A
07
E4
E7
DC
CE
B5
E7
33
00
08
D9
07
DB
1C
F9
A3
FF
E1
2B
F9
50
D1
DF
B6
0F
FD
BD
EB
ED
E9
E7
38
DD
D0
F1
A9
EE
15
D5
D6
E6
E4
0F
1E
29
E3
29
11
19
D1
D7
25
27
1D
14
0B
D4
3A
DF
24
FC
04
F6
10
F1
0C
E1
FF
F7
F0
D9
14
F5
0D
F8
0F
13
D3
05
23
08
ED
12
EC
25
F0
1D
E7
20
38
03
D7
04
12
DB
3A
D4
F6
11
05
11
14
0F
03
D9
07
C6
11
08
D3
E8
02
0B
F8
ED
03
3B
2A
1C
1A
F5
1F
1F
EC
CA
F5
FC
1E
D2
18
E1
20
23
FF
1A
DE
0D
F3
F5
CC
F9
CF
18
F0
03
EB
02
E1
F5
2A
FF
FA
1A
40
08
13
03
ED
EE
E8
F9
E1
D7
F8
24
E4
0E
FA
16
DE
1C
EE
F2
E1
17
04
0E
15
0D
FC
19
F2
13
06
0F
E3
11
FC
08
15
E5
FB
FC
1E
F0
FE
EE
D9
FC
0C
10
EE
17
EB
F7
E4
0E
20
FE
EF
E9
EA
EC
E7
F6
2F
16
E7
EC
E0
04
21
F6
23
07
1E
E8
F9
08
1A
0E
E2
1D
0B
08
F0
11
0B
EC
1A
FA
14
F6
FC
EC
18
0E
F8
E3
1C
F3
1D
F1
EE
1D
F2
FF
F7
05
FD
EE
F0
21
F9
27
02
F1
16
FC
10
E1
E9
07
22
33
1C
F3
F0
FF
FF
EB
DC
DC
0F
D8
CE
1C
17
1D
CC
FB
DA
F4
D9
01
34
31
EF
14
19
19
EB
E7
E0
1B
FE
32
F0
23
C1
E8
05
ED
02
BD
0B
F1
F0
1D
24
F0
E5
C7
08
17
F6
1F
24
03
0C
17
09
0C
F1
E3
07
25
0A
10
04
F5
1D
DB
01
09
01
12
1F
F9
0C
19
05
DD
EF
FF
DB
25
01
19
EB
F9
F3
CD
EC
01
EB
FE
F9
1D
ED
FB
14
EF
0B
E7
F6
08
F4
09
F6
01
14
28
F6
F1
EC
ED
10
19
0E
F6
1C
0C
F3
F5
E8
F5
FD
E3
F9
F5
0D
13
11
B9
02
12
F1
F2
13
11
F0
F1
FB
19
F7
2D
05
DB
FC
03
11
10
19
DD
E6
F3
29
E3
07
D0
E3
10
E8
02
FB
03
2D
EA
00
F6
E3
28
1C
FF
F0
08
EE
0A
F1
13
E2
30
1B
25
EA
E0
EA
D5
33
03
0A
C0
08
FB
E8
01
F7
0F
05
18
F9
FA
F8
0E
E5
D9
01
13
D9
FB
34
F5
0E
23
F7
1C
09
D3
01
F9
06
E6
0E
FC
11
EF
06
14
1E
EB
CE
15
E4
11
FC
05
09
F9
EE
D7
D4
28
F8
E4
05
EE
E8
0B
DD
FC
1B
EF
F5
D7
E3
F4
0E
FD
16
EA
1E
06
0C
05
E7
09
0C
F1
27
20
EE
03
02
0F
05
08
EC
04
EC
05
DF
00
18
19
EE
1D
08
E5
16
15
FE
F1
04
F3
F8
0C
DF
03
1E
DC
FF
EB
EB
0A
D6
DF
F2
06
15
F1
1C
E6
FF
E6
1D
0B
22
03
F5
D5
10
F1
ED
08
0B
F2
E2
12
EE
EE
F5
EA
D5
EB
E6
C8
D6
00
00
BF
FC
0E
18
E1
F5
FB
14
0B
15
F0
D9
FB
1E
FB
FF
0B
0D
F5
FF
F2
F4
F7
17
04
02
0C
01
EE
D7
E9
EF
EC
0E
20
05
18
DD
01
FC
FE
02
07
F4
E7
F7
FE
0E
DB
0A
FB
10
01
E8
F8
1A
FD
16
FD
FA
FF
FB
FA
F7
06
F1
17
07
E1
ED
E6
0E
FA
08
EB
E9
F3
1E
FC
08
F0
FF
F8
03
1E
0D
F2
0B
0A
FB
FE
F2
15
02
F0
08
FF
F2
02
1E
0F
FE
F6
FE
1F
F1
10
EC
0A
F8
03
F8
05
12
25
FC
16
E3
00
F9
09
07
F9
09
EF
EC
FB
E7
F9
09
03
12
EB
E8
EB
E9
F0
EA
05
EB
F7
11
0A
07
F8
F6
FB
ED
FA
0C
DB
F5
0F
10
03
08
ED
F1
F5
09
F2
02
EE
0C
F5
F4
E9
EA
F0
EE
EA
05
0B
09
FA
F1
FA
06
04
F7
14
0E
0C
15
19
0A
E6
FA
0F
11
FF
00
13
F0
08
01
F1
EE
E5
F8
1B
E5
E9
F8
F6
0A
1C
08
F8
EB
FB
EA
06
12
0E
05
EF
05
FC
ED
FC
E6
11
01
09
10
1F
09
EA
FD
FC
EB
0E
05
1E
0E
F0
0D
FC
01
F0
0A
F9
F7
01
02
FF
FA
0A
09
19
02
F5
DE
F8
12
F7
F3
1A
1F
DC
F6
08
ED
11
0F
F5
07
F1
1E
01
E5
E2
E2
EE
FC
05
FA
18
ED
F6
DB
0B
EA
07
F4
F5
FE
0B
19
13
E6
10
E0
0B
DC
05
2A
00
FF
F7
0D
D1
2E
E9
EB
D1
ED
F2
0D
FD
1C
E4
39
18
DE
22
DB
1D
F9
0A
1A
1E
07
F6
1A
1F
22
01
FD
0D
23
DF
1E
14
FF
0D
1B
3A
10
04
1D
07
17
FA
04
0E
17
F3
F1
0F
F1
22
11
E4
D4
11
D6
F7
08
EE
EA
B3
26
1D
FD
FB
E3
30
F3
21
F8
C8
B9
21
DB
00
16
0A
E6
D1
41
F8
D2
CA
E0
12
17
DE
02
12
0A
EB
DF
0F
CC
09
0D
F1
23
0A
02
1C
11
D4
12
06
2B
22
01
26
10
11
EF
0B
31
F8
DE
FC
07
E1
19
DD
0F
04
06
F4
35
F5
F1
09
C8
ED
D0
E5
ED
32
05
22
0D
37
DE
FE
10
C9
01
E8
FB
53
F8
E8
E3
CB
FC
FB
24
18
EE
FB
13
F3
05
31
0B
24
E5
02
0B
F0
0E
10
CE
FE
0E
F7
3D
1C
17
F8
F1
FD
08
00
EA
02
0D
01
EB
EC
18
2F
CE
09
0A
04
30
1C
10
E4
F1
DC
DD
F8
12
F5
2F
F5
26
02
D8
0B
07
11
16
05
0A
09
F1
F6
18
11
F0
26
0F
F1
E2
FD
21
4E
FD
0E
04
0C
34
1A
0C
0B
EF
E3
0A
D6
EF
03
20
1C
24
AF
E0
13
EA
20
05
E5
FE
F4
10
DE
05
3F
03
47
FA
20
FD
C1
31
FB
C8
09
29
F2
23
26
28
E7
12
11
EE
10
F3
15
1D
1D
F4
27
EE
18
F1
01
F5
FB
E8
1A
EC
06
17
EE
F7
0E
14
04
EB
FD
03
00
04
F6
09
0B
09
13
0A
0F
27
01
FA
08
F2
26
FB
16
15
E3
F7
06
11
EB
E0
F4
1D
0E
FE
E1
E3
DD
E4
FB
DE
EF
0B
FC
E6
2A
F2
03
27
1C
1E
FB
1A
EC
FC
FE
07
CF
01
04
E9
06
D2
26
EF
F1
E9
D2
FB
FF
17
0C
08
11
0E
EE
00
0A
07
F0
12
18
10
1A
FF
0F
22
1C
D7
1B
0D
0A
19
F8
1B
03
FF
FC
F2
19
EF
DA
FF
FC
1D
05
0D
F7
F1
F4
14
09
F6
0C
07
1B
00
1A
1D
10
09
F5
EB
F8
F4
12
E0
EC
F6
01
05
F7
16
03
03
F0
15
EB
03
FF
FD
19
DA
E7
24
F8
26
2A
06
E8
E1
FC
FC
F5
0F
FF
F8
1A
FC
1A
FF
E3
EE
CC
F1
F2
06
0F
01
16
EB
ED
08
0F
16
DD
0E
16
03
E3
EB
2A
0E
F5
03
16
D1
EE
FB
22
0B
0C
0C
09
15
16
EA
F8
07
DE
F8
FA
02
18
00
14
FE
01
12
06
2E
FB
E8
E8
F8
10
22
2C
DB
0D
1E
FF
EA
28
EE
1E
FF
18
F5
FC
24
0C
0F
06
EF
F5
0D
FA
F1
0A
0E
11
1D
D9
EB
0F
DC
F7
FD
FD
EE
CF
18
07
FF
16
E7
E9
F3
2F
16
05
22
E8
06
DF
ED
FE
1A
01
1E
0E
12
0E
04
11
F9
F4
FE
07
F4
1E
EA
28
0C
26
11
1E
FD
FE
F4
0C
F6
F6
22
03
EE
F3
F2
E3
DB
11
E6
FF
08
F1
00
12
F6
E6
CF
0C
14
0E
11
F8
1E
41
EB
1C
DC
15
07
F3
F1
38
34
E2
3E
F1
CC
FF
ED
17
F7
11
0C
FD
06
BE
1E
0D
C5
21
29
20
21
0A
12
24
25
06
02
F9
E8
2D
FA
EF
31
04
ED
FB
F9
0D
1A
05
F7
D8
06
FC
FC
00
DB
FD
02
EF
ED
34
F9
E7
01
ED
FD
D5
F7
FE
FE
E0
E6
DB
EF
16
F5
1D
E7
0A
0D
18
FD
DF
DE
F7
DF
07
F0
13
F2
EE
1E
E9
F3
E2
08
0C
EC
26
F5
10
02
DD
1D
F9
01
FF
16
15
2B
13
FE
C4
FA
2F
1D
01
09
FC
FE
25
1A
FA
12
0E
F8
08
23
03
13
CE
0C
1E
F5
09
FB
14
0B
0C
1B
21
01
2B
F0
2B
08
E4
0D
04
13
31
FE
14
F9
21
3C
2B
E3
23
F4
FA
E8
46
1A
1D
41
2A
0C
11
19
2A
11
00
25
F7
3D
22
EF
03
EC
17
FD
3D
F6
39
FA
17
0C
C4
16
F6
FA
09
25
FB
DC
DD
19
13
1E
F3
1D
F0
F8
E7
E3
15
F6
2E
3C
10
04
0F
F9
00
F9
5D
2D
07
EE
08
18
20
2E
D7
41
F8
07
EF
C6
1D
05
D2
F1
E4
EC
23
07
0C
D9
03
F5
00
08
0F
21
F0
03
07
08
21
03
02
FE
FB
12
01
03
1E
E7
F4
05
E4
17
E5
E6
F8
F0
F6
0A
EB
07
26
EA
13
FF
0E
25
27
13
FE
E7
03
EA
DE
F0
0E
0F
FD
E5
0D
00
D5
08
E5
F5
07
FB
13
E1
F2
21
D8
EF
ED
E6
FF
F0
EC
1B
11
15
EC
F1
11
FA
F7
10
D8
F7
E4
14
ED
FE
EE
EE
F8
0F
E9
16
01
E2
FF
0C
08
E6
19
14
E2
05
15
04
15
01
E7
F6
10
FE
0D
F4
F2
EB
20
FE
FB
E8
EC
ED
F2
17
0D
EB
F3
FA
10
03
00
0A
1B
16
FB
FB
01
30
0E
F3
13
E9
16
10
DB
0C
02
0D
18
EA
F1
18
EA
02
EE
01
10
DB
FF
E0
22
E7
E2
0F
F0
30
E1
06
10
ED
09
17
19
0B
F4
09
FE
D8
DE
E3
0C
E8
E2
E7
00
1A
F1
DD
EF
E8
00
D8
16
08
F5
0E
E2
EF
11
E8
DF
09
1A
01
E4
F9
14
FA
18
E2
D6
FE
F1
04
0B
03
04
05
DF
1E
06
DB
FA
D3
E8
1F
15
F6
01
FF
E9
06
00
23
26
05
23
16
0F
11
10
E4
13
FD
10
26
14
1B
ED
02
EF
BC
FF
EE
DE
EA
27
0A
06
19
F8
06
DA
F1
FE
15
E4
F0
F4
01
FA
28
FC
C6
C3
F3
EA
E3
0D
09
FB
F8
E5
EF
E7
DD
21
E8
E0
1C
EA
1C
21
F6
F5
0F
ED
F6
FE
05
19
0A
00
EC
FC
F1
E7
0E
DA
ED
09
EA
07
0A
06
02
0B
01
10
DB
06
FC
0D
E5
17
14
03
1D
13
17
00
24
00
F7
FA
16
E2
EF
E3
12
F4
17
FF
02
FA
13
EC
F4
E3
19
08
08
EA
0F
EC
22
12
1F
F6
03
E2
0C
10
04
12
15
03
0F
EF
E8
14
11
E7
E5
0F
FF
05
FC
1E
D8
F3
EF
DB
F4
01
F4
FD
18
EE
EA
FE
FF
07
DF
EE
FF
07
17
07
ED
F4
03
DC
E9
00
11
EA
1A
FB
03
09
02
20
EA
15
FF
0A
32
11
0E
F6
09
E3
FC
00
EE
E6
17
FB
13
F7
24
01
E1
C3
02
02
F5
06
DE
F2
10
FA
F6
F3
F8
06
EF
FD
FC
F4
08
F5
2D
E9
05
FE
F7
F9
FD
01
F7
EE
E7
FB
EA
CD
10
EE
02
FD
FA
27
FD
19
D6
01
E3
04
F4
EE
03
DA
FD
EF
EF
2F
12
FA
05
10
12
18
E1
F5
11
FE
F4
FB
F4
D4
23
ED
0E
00
FF
F2
1F
09
16
22
E4
1D
26
FC
09
DB
15
F8
D8
EA
07
EE
F7
E8
E6
F5
F9
17
EB
D1
01
E4
DD
15
16
FB
EE
F6
F6
FD
EC
EB
E5
E1
FD
F7
39
F7
01
18
F3
E5
00
13
02
EF
0F
04
EB
10
DC
BF
0F
FE
FF
28
0F
29
FE
0E
E0
1B
F6
D9
01
FB
E9
04
17
F0
05
FA
E1
F7
E7
12
F7
16
F7
09
1D
0A
07
FD
00
01
07
05
EF
0B
14
08
D9
F6
F3
F1
F2
0D
FF
06
F8
11
02
0D
E1
F8
F3
04
FA
18
11
09
0C
10
08
16
F5
10
10
E3
F7
FB
10
12
F2
03
F0
F3
04
FF
10
0B
DF
E9
F9
EA
F8
16
0A
EA
03
E5
00
09
11
0D
24
DE
E7
02
E8
00
E6
11
F8
13
F7
E5
FF
DD
EF
11
14
F0
F6
F3
F2
F1
E6
13
02
FD
F8
02
09
F4
0A
F2
E4
DE
F2
01
1C
F7
00
F6
00
18
0E
11
00
E6
0A
FA
F3
10
19
14
07
E5
EE
EE
F2
FA
FA
00
05
05
F3
F5
E9
EF
02
10
FF
14
08
F9
01
F1
F1
01
FF
EB
E4
EA
06
FF
FF
07
00
E2
07
F4
FF
03
0A
E8
01
F9
F6
FE
F7
01
F6
09
EA
09
0B
EA
0E
EC
11
EE
F9
FC
E4
13
1C
16
DD
0D
00
E6
F1
0B
F4
14
DC
0E
F5
16
20
03
F5
F6
E2
E8
1A
03
14
F2
0F
20
EA
04
01
01
0A
12
02
15
17
0A
12
03
08
17
EB
15
E0
19
1E
F1
21
FE
FF
FC
F8
F0
08
E5
06
00
0F
FF
E7
F4
E6
0D
F1
DE
F7
F9
FA
1D
00
F3
FE
15
D8
27
09
24
0F
ED
E7
04
FF
09
11
EB
F5
26
E5
F4
FB
F0
FD
E0
FD
FC
EF
0A
FC
ED
F5
05
0F
DF
00
18
24
DB
E1
F6
F4
E9
F1
18
F9
14
0C
EC
01
09
12
14
D6
E8
07
05
0A
01
13
EE
D1
19
FD
11
DB
F7
F8
02
1E
E3
F6
E4
0C
0E
D8
0E
E8
1D
E8
24
05
0C
EB
F2
E4
EC
DC
F6
07
E9
03
EC
10
F1
0F
E6
E6
F2
EF
00
00
F4
FD
0E
EC
09
04
E9
1A
E3
EB
ED
1C
FF
FD
0F
E8
15
F6
F7
EB
28
0C
1C
E6
19
F4
04
EB
ED
09
06
28
F8
F9
EE
FE
F9
E0
FA
F1
0F
E6
F2
E4
FE
EA
09
FA
01
09
14
E6
E0
EE
ED
0C
F9
03
F0
ED
EB
FC
0E
14
F8
F8
F3
15
FC
07
EE
08
12
22
1F
29
E6
0B
02
FB
E8
03
F4
EF
DB
1E
02
01
E8
13
02
EA
13
14
F2
EC
CC
1D
F9
F8
17
09
E0
09
F8
02
FF
08
F0
0F
FA
1C
1B
EC
19
20
2B
23
F4
0C
0B
EF
F2
E6
0A
1B
0A
F3
F6
00
E8
22
07
F1
12
09
F5
F7
24
E7
17
DF
0A
E7
02
DD
F1
F9
E7
04
CE
01
09
0D
E2
F6
DD
01
F7
06
02
E7
F1
12
FA
F5
F5
F7
F7
10
23
19
E7
F1
FA
E1
FB
F1
24
FB
F7
19
02
E9
FB
E7
0E
02
0B
E9
07
10
E1
06
F5
03
18
1F
E6
0A
ED
0B
04
28
FE
F4
E2
1A
FB
03
01
19
0D
1F
DC
10
FA
F6
E4
12
02
FC
F8
1D
E9
04
17
01
F5
11
09
01
FF
0C
FC
E3
13
10
F5
FB
06
11
DD
1A
ED
E7
FA
FB
EE
F6
F6
12
0C
09
1F
0E
E4
EF
17
25
09
08
FC
E6
E5
EF
F7
17
EB
E0
E8
06
10
E2
04
EE
F5
0C
EB
06
04
13
F0
F9
F7
0C
F6
0E
FC
17
E3
EF
03
FA
08
E7
23
F6
09
04
00
14
05
E3
16
0C
FE
FD
1F
09
EC
0B
07
01
E1
0C
02
FE
16
FB
08
ED
ED
F8
E9
FA
0E
FA
FA
07
E9
F4
FA
FA
F4
F8
17
EA
F5
F2
06
EA
0F
F8
07
F0
F0
03
F6
FA
F6
15
BC
08
F8
1C
FD
FB
02
EC
E9
E6
EC
FB
FD
0F
EF
ED
FD
E5
ED
1E
F1
F6
06
07
00
00
F3
03
FD
08
F5
18
05
FE
DA
28
12
03
FB
F7
E2
F6
00
14
0E
EB
04
EE
FD
FC
F7
FB
03
14
06
0B
0A
0E
D7
11
0A
0F
FA
02
E8
E9
EE
E4
0D
11
01
0F
EE
DE
F5
0E
15
06
0E
F0
F2
20
DC
EE
EE
F9
E0
0A
FF
04
F8
09
FC
FC
02
FF
DB
EB
E4
0F
F4
06
0B
F3
E1
0E
0F
EE
E8
EC
12
04
28
E9
E0
FB
07
0E
06
EA
22
00
CD
14
0D
10
F5
FC
F2
09
FC
0A
03
0A
07
FB
00
FE
16
FF
13
14
02
EF
17
FE
0B
0A
EB
ED
01
EF
04
0E
19
16
EE
EC
EF
06
F2
05
01
ED
06
0D
F7
E5
23
0E
02
EA
FD
1F
ED
FA
0C
0C
F7
1A
0B
FD
13
04
09
15
F3
11
EE
04
F2
FD
D7
EF
09
F5
06
0D
1A
0D
F0
EF
0F
EA
08
16
15
0B
F9
19
1B
12
00
21
F3
DE
FE
05
FF
00
17
F5
D8
F6
D2
01
0E
BF
FB
FE
00
26
E3
06
0B
DE
FE
FD
FE
1F
29
20
F8
38
F3
19
10
F4
EC
FC
19
03
F0
E2
02
F4
08
11
ED
D7
F5
FA
E8
07
F0
04
0B
19
0A
0B
F5
FB
0A
F2
EB
E8
19
F1
1C
F4
05
EF
0E
0B
D9
07
D2
10
06
0A
13
EE
23
0D
18
0B
E1
09
2B
09
FF
EB
0E
04
18
E5
ED
F1
0E
17
02
15
12
F1
FE
FC
E7
D5
D3
0D
07
FF
E8
ED
28
0A
19
E8
FD
01
18
05
18
0C
00
1F
0D
DF
09
1E
F1
E4
FE
FC
F8
0F
E5
EC
E8
04
1C
F9
E9
0A
25
F8
0C
FC
0A
11
E5
F2
FD
09
FF
14
F7
2A
07
0F
F4
08
F7
28
E7
1F
FA
15
08
1E
17
18
12
FC
12
04
1B
16
EB
13
0D
FE
ED
F8
F1
F3
19
E3
16
01
F2
F5
FE
ED
DF
17
15
1B
E3
F7
E6
F7
F9
F2
DF
03
09
D9
F9
F7
EF
F2
1D
E4
C1
E3
00
E7
F9
0F
15
1F
18
01
00
1B
E5
E0
F7
FE
27
00
F8
EB
F5
06
2B
D4
DB
F0
FF
ED
08
FE
E6
F6
0B
EF
D8
0A
F6
E9
FA
24
05
ED
08
10
23
E5
0D
1A
17
F3
0E
15
E4
DB
31
09
0E
1A
D3
1A
05
11
EE
EE
10
F4
E1
00
1D
12
23
D8
F4
FD
F8
CA
E8
FD
F6
D6
F4
FB
1F
F6
04
E5
02
E0
FA
13
0A
3A
13
FF
F6
D3
07
EA
F2
07
1E
C9
13
F5
10
EF
E8
FD
17
32
05
2B
01
09
FB
0E
E8
D2
F8
08
EE
2A
F1
FB
EA
F8
F9
EB
F5
12
EC
1D
13
00
E4
21
03
ED
D1
33
12
17
EA
37
04
E6
F1
F2
E8
08
22
FE
19
EE
05
0C
EB
19
05
E0
17
1B
03
30
39
DC
24
DD
EA
E8
20
EF
D5
11
FC
D6
08
FC
19
F4
FB
E8
F4
00
01
F2
E6
03
E1
DE
08
1A
1A
F5
16
C6
2E
02
F6
EB
F7
13
F2
F0
08
35
F7
09
22
F2
24
FA
D5
08
D3
05
12
13
EB
DE
E0
F3
E3
07
05
ED
05
FB
17
EF
05
13
E3
F2
11
13
F1
F8
DE
F0
E3
DA
E0
ED
EF
EF
E3
22
D7
F9
04
E0
DF
0F
27
0F
EA
06
1F
F4
01
0F
ED
10
F5
F8
EE
E8
05
FB
2B
CF
E5
DD
CE
04
22
22
D5
2A
E8
18
D5
EC
ED
FE
D5
05
2E
01
20
E3
25
DD
05
08
F1
3B
FA
2C
06
46
01
EE
34
DE
F2
0A
FF
ED
01
F1
E6
00
FB
0B
0B
08
0A
EF
D6
04
E3
EC
FC
F4
F9
ED
17
05
18
01
F1
F6
04
19
07
ED
FC
14
0C
F7
ED
D5
C6
10
ED
20
07
FD
F0
F9
EB
FF
0A
1D
E8
F7
0F
EC
0B
FE
F4
E9
F2
D5
EE
0F
F7
EA
EE
15
F2
15
DF
03
F3
EE
E7
F7
DE
EF
17
00
03
0A
EE
0C
FC
F5
05
F4
EE
0A
E7
0D
F3
E1
F2
FC
FA
01
F7
EF
0E
F8
06
E3
DC
1A
E3
F8
10
ED
FD
14
F7
17
09
09
E2
17
E5
08
05
1A
1B
EB
FA
E0
19
01
19
0D
02
18
E5
10
EB
07
F0
03
E8
09
F2
01
0B
F1
CF
E5
0C
E7
EC
14
EB
F9
23
E6
0E
FC
EB
0C
ED
EC
15
EF
E1
1A
F0
03
0A
10
FA
EE
01
0F
E9
FC
E7
0D
08
FF
E8
0A
F4
F1
FF
F9
11
0B
FF
21
EA
09
05
02
F0
0E
07
FE
EB
09
04
F1
E5
FB
01
FC
F2
FF
F6
FB
FA
FB
11
FC
E8
F5
0A
17
EB
0E
13
F9
F5
E3
14
01
FD
F4
E1
06
F6
1B
F3
02
BB
1E
E6
F3
04
03
F9
10
E2
F3
0F
17
01
EC
0D
0F
20
05
FB
0C
FA
0D
E5
0C
25
F5
D1
10
06
0C
13
F1
DC
10
0F
FD
FA
0F
FB
FB
28
FF
08
16
E8
07
1A
EF
1B
05
06
0A
F0
EA
07
F5
F1
16
11
25
E8
F2
0E
23
09
17
13
11
0D
00
E6
1D
19
0A
FB
16
F6
E1
11
0F
EA
00
01
E1
1D
06
11
EA
D8
0C
17
E8
F3
F0
EB
FE
EB
EA
E9
FB
09
E5
FC
18
01
24
F1
E9
01
04
F5
08
09
F1
F6
F7
F1
F9
09
1B
13
12
02
E0
04
08
1A
1F
F5
01
F2
15
0A
F6
04
15
FC
22
F6
D7
0D
0D
20
13
DD
07
F7
EA
09
12
F4
FF
0A
EF
0F
F8
DD
EB
06
19
01
12
F0
0D
FB
01
F9
15
FB
FF
D1
0B
23
F5
1B
F8
1D
0E
0B
1D
F4
D7
17
FC
1A
10
F5
FA
E8
1E
FE
07
0F
17
05
F7
EB
0F
F8
E5
E8
13
E4
E3
EF
13
1E
18
1B
E3
FE
25
02
10
E8
F5
09
1B
00
F3
0D
18
F1
21
E9
0F
F3
0A
24
03
06
0C
E1
FB
0D
F8
FF
E5
0C
EF
F8
FE
03
05
E2
16
E8
F3
1A
DB
FE
1B
0C
28
EA
19
C7
07
0D
10
0E
15
18
08
0E
ED
07
E9
30
1D
04
13
12
09
F6
19
0F
19
E2
EB
F0
2E
F8
E9
F3
12
10
31
E7
E7
0F
F9
EB
F1
3C
0E
FB
04
F7
F2
FB
08
15
FA
35
C9
FA
2B
05
16
E2
DE
F2
13
D6
E4
14
09
01
2B
E1
E7
0B
F7
FB
13
3A
18
FC
0D
0A
E5
1A
17
11
E3
1D
E5
FF
19
FD
05
F3
EE
FE
1A
DD
0E
03
14
1E
F3
FC
18
12
F4
EF
0F
F8
0C
E7
0A
15
0D
E2
F4
F3
EB
FB
0C
F0
F7
E1
0C
0C
F8
ED
FA
F9
DB
00
EE
03
05
E7
0D
0C
F0
0C
04
05
F4
FB
E3
F5
DE
17
EE
02
09
07
02
F8
F7
13
11
EE
F5
01
D9
14
FC
F1
DE
22
FB
EA
E6
F2
F5
F1
E4
1E
F2
F7
08
05
17
14
15
E8
10
05
F6
35
04
20
0A
DB
FE
37
EC
FA
03
07
15
14
13
18
00
E1
02
F9
E4
FA
E9
F9
10
11
FC
F5
FF
03
00
F6
0A
06
2B
FE
F3
03
F2
03
06
F1
ED
E4
D9
DF
EF
F1
ED
D5
1B
F5
F5
04
E8
0F
D9
F0
F3
14
10
0C
15
0B
03
18
FC
0E
1F
DC
FB
FB
FA
E5
F5
09
04
23
EB
D8
E0
0B
2A
FC
DE
ED
E7
F7
11
FE
13
0B
FA
E9
FC
0C
F8
2F
08
04
26
E0
FA
39
04
F2
E9
29
1C
ED
FD
04
0A
DF
D4
14
0B
16
ED
D8
EF
01
E9
FB
F6
0F
0A
F9
E6
EC
04
0C
08
10
F9
06
F5
07
EA
07
F1
08
EE
FA
1B
FA
F6
F8
DC
EE
F0
0D
01
12
0B
06
E9
E7
0F
F0
16
1D
17
03
FE
FC
1E
14
F2
F7
F9
DB
DE
18
F1
FA
DE
F3
F6
04
FF
EF
E5
FB
F0
26
06
F8
0D
F0
E9
3A
2A
2D
EC
17
0A
F0
ED
29
E4
11
20
E5
F4
26
DC
21
F3
E0
EE
12
E3
CF
F1
03
EF
E0
FB
09
D2
02
11
D2
F2
00
E8
DD
E5
FB
22
0D
D9
2E
E2
16
F7
08
F5
10
E6
24
19
D0
ED
EE
FB
05
FF
DA
15
1C
F9
0B
D8
E8
0E
EB
F6
04
23
EF
20
2F
F3
F6
14
FA
09
0E
D3
0D
F7
02
07
D1
1C
CA
FA
07
F1
14
31
FC
FA
05
23
F8
08
0C
ED
07
FF
16
13
27
E4
1C
10
E6
E0
15
E8
0D
2C
1B
ED
E2
DD
0F
28
E9
DD
DE
E1
EF
11
1B
F7
0B
23
E0
11
ED
FC
FD
FC
0E
D7
0F
12
09
0F
EE
FC
F3
F4
2A
E8
0B
E3
E3
EF
01
22
11
1D
16
12
DF
FB
0D
EE
05
03
EA
E9
04
F4
24
FE
D3
0C
E5
17
EA
EA
FF
28
D4
22
11
07
EE
F0
2E
39
0A
F5
F2
E8
0B
E2
28
06
33
DB
FB
23
F5
E9
49
18
02
21
12
1A
1B
13
2D
F6
E1
E0
12
07
CE
27
D7
05
00
15
18
E7
E2
17
05
05
14
F6
3A
EF
24
05
09
01
19
FD
DD
03
FE
0D
C9
1E
0B
2C
0F
07
E2
E5
F7
0A
13
19
3A
04
17
DC
38
00
31
08
11
15
E3
E7
1E
27
C8
0C
06
E8
D4
0D
02
02
E9
3F
08
23
DD
F3
09
25
34
30
DB
1F
FF
F8
4D
12
12
F7
34
27
03
E8
26
28
03
09
ED
FE
F6
00
08
F0
FE
F5
F7
0C
21
EB
EC
F8
0A
F6
DA
1B
17
00
20
FC
00
E1
0D
15
E6
14
FB
01
EE
FE
E1
0C
02
E8
0C
FE
29
15
04
EA
F2
D9
D8
FD
F6
F5
EC
FE
F1
09
11
13
FE
F4
EC
1E
DB
15
1B
04
F5
02
FB
FB
F0
F2
ED
D0
EB
F1
12
0B
11
FC
E4
EC
0E
F4
1C
E9
13
EE
1B
FD
F2
CD
0C
F1
DB
06
FB
11
13
04
0A
08
15
0D
E6
F7
12
FA
E4
0D
17
F8
EE
E6
EF
05
E6
12
0D
12
F9
15
08
24
F9
03
EC
01
F4
1C
1F
15
04
0C
E0
07
F3
FC
00
EB
07
F7
16
E2
05
17
E2
05
20
F3
22
05
FE
F9
04
EA
13
F8
E3
DB
05
20
FE
09
1D
EB
FB
E6
EA
FD
F1
FF
10
1A
11
E8
E0
F5
0B
13
14
13
FD
FC
FF
ED
09
F2
0C
0E
12
09
F1
FA
14
1D
EC
F7
07
EC
29
05
11
FB
F1
11
13
06
21
13
0C
21
DF
F8
E5
12
EB
F5
F4
04
F9
19
1B
1D
00
F3
2F
FE
FE
F4
11
FB
1E
F3
24
E5
17
07
C3
FF
F6
FE
0D
07
2B
0A
E0
1D
E8
06
08
FE
22
0A
01
0E
FE
ED
0D
26
F5
F3
0B
CE
23
12
2B
FF
25
EA
CE
0A
1B
25
12
26
01
24
D1
15
ED
05
0D
F2
F9
F7
04
08
F2
D6
F7
E7
E7
FE
0B
F7
E6
FE
07
0C
EC
EF
10
D6
E1
ED
FE
FB
FE
F5
F9
01
FD
FC
0A
1A
F4
23
F4
FA
0D
03
11
F6
DE
0F
F8
18
06
FC
01
06
04
E1
14
01
D4
17
00
03
0C
FA
11
E6
1F
E2
F9
0B
F5
16
FC
F1
12
0D
22
F2
00
00
24
FF
F8
E5
FA
06
FB
DF
F5
06
F4
09
EF
F3
03
E8
00
F4
EC
18
EE
FA
07
10
E7
0F
FD
FF
1C
03
E9
FA
1C
19
EF
12
E8
F2
11
EB
F0
F9
E2
FD
FC
EF
04
CC
13
E3
FA
F9
E8
08
0A
10
05
0F
1F
EC
0A
EC
11
E0
16
02
DE
EE
EA
08
E7
08
08
F9
E6
1A
09
ED
02
0A
20
F2
E8
EB
FE
E4
0D
1D
EF
D0
FF
0B
04
14
02
FC
0D
0A
18
D9
03
09
F3
EF
F8
DE
F1
EF
01
0E
18
D1
02
FD
09
F4
02
FF
1F
01
F7
01
FD
EA
F5
FB
06
FD
21
FF
17
EB
11
F4
F3
F2
F9
04
10
0A
0A
ED
EF
E7
03
F3
F7
E5
F2
FC
0B
04
F9
F1
0F
04
FF
03
FE
EA
1C
0E
05
E4
17
F1
E8
E5
22
F6
F6
ED
FB
1F
F0
FE
06
E2
03
DC
F2
05
F6
14
09
05
EF
0B
E3
0E
05
EB
FA
07
18
F2
11
14
1A
01
0D
E2
F8
10
13
F4
E4
D6
FD
E3
09
FC
11
FC
FE
FF
FC
E0
EB
FC
F3
00
F0
12
13
1A
07
E9
FE
04
24
FA
0D
EB
09
FF
E7
E4
FD
E7
08
FE
E6
0A
FF
17
F9
F6
E4
07
E2
0F
F8
06
EC
F9
E9
22
F4
E9
0F
10
01
DE
ED
E0
0E
F4
FF
09
0F
ED
18
05
F3
08
1A
F9
F6
09
FC
EE
03
FA
E3
EC
0E
01
03
1A
03
02
00
FE
04
FE
FF
E4
01
08
F7
07
F1
1D
EA
F2
07
E9
13
FA
06
FD
F3
FC
EB
0D
F4
F2
E5
07
19
FF
0D
FF
02
19
20
01
F6
06
EB
FA
07
07
03
0B
F1
E7
14
02
04
F3
04
FC
05
EA
E3
02
0D
E0
DF
FE
0B
F9
EE
FD
06
1C
F7
F4
F8
08
06
EB
F3
04
F0
03
F5
E1
EC
ED
17
06
FF
F3
03
0E
0D
10
10
E5
F7
0C
21
1A
00
EE
F1
0F
11
11
0B
11
0F
09
FD
FB
02
0B
0B
FB
03
F5
0B
05
ED
0F
FB
03
F6
06
0E
F1
E4
07
FC
F2
03
F1
FE
F5
16
FE
0D
FF
F4
FB
F3
E3
EF
09
F5
FF
FA
E6
FD
EE
FE
FB
03
F0
E8
08
F4
E5
EC
0E
16
26
FA
0D
DE
16
18
0E
02
DF
FC
00
DB
F5
EC
10
0F
EF
0A
08
02
EE
FA
FB
EA
FE
18
19
1C
0C
00
12
F0
0E
FD
FA
09
1A
21
FA
EC
EA
F0
13
06
FC
E8
EE
F3
F7
F6
EF
F0
E7
E4
F1
03
F0
FE
09
13
F9
F6
05
FE
FF
D5
00
FA
05
01
0F
04
E8
E0
00
EF
E8
0A
F8
FC
F8
01
EA
F7
FF
01
E6
F6
02
0D
F5
0D
07
0A
F7
0F
F6
E4
DD
F0
17
EC
15
0C
FC
0F
13
D4
ED
FB
F1
EE
0A
08
04
17
D9
F3
F8
13
F4
0D
0D
00
FD
ED
12
F2
02
F5
FD
F0
0B
EB
09
F9
01
0F
1D
17
EB
F2
E9
F5
03
11
24
0E
06
F2
12
17
DE
05
11
E0
15
ED
F2
F3
0A
EA
08
F6
01
2A
15
F9
E5
F7
EB
DF
FB
F6
EC
1C
0E
F0
E8
10
DF
FD
EC
D1
0C
FB
F7
E1
17
DF
EE
0E
EF
D9
FB
19
1C
1C
F0
11
E1
F6
0B
01
11
0A
02
F8
EB
19
F5
EE
EC
ED
08
F3
D4
12
13
EF
F5
17
0F
D3
05
E9
EC
13
01
02
05
E0
FB
02
05
19
E9
09
FF
13
E5
F3
11
EE
ED
F8
F8
01
CE
02
FD
1E
0F
E5
F2
F8
DD
09
21
E5
F2
0E
0F
D9
13
E5
08
E4
F3
F3
F4
05
08
0E
F6
15
EB
23
11
FA
FB
02
F6
16
F6
E2
05
F5
E7
EF
FA
0C
13
F1
01
DD
09
EA
EE
EA
FB
11
0E
FF
0F
1F
E2
10
E1
EE
03
E1
E6
0E
14
F0
FA
0B
FC
DE
DC
02
07
04
30
FE
01
FA
07
31
F5
05
EA
09
F1
17
DE
EF
01
E2
09
E0
1C
E9
E8
14
01
FC
22
10
0A
10
F0
13
13
07
FC
D8
0C
ED
03
16
03
03
02
F2
08
0A
13
EF
14
0C
EB
1A
F5
19
01
DA
17
FA
14
04
05
02
1B
25
07
EB
F7
FB
03
E2
E1
FE
F6
30
DC
EE
03
16
ED
EF
05
FE
FC
1F
EB
0E
F8
0C
11
FE
F5
F6
06
0E
E8
20
E9
FD
E7
15
F6
F5
FD
F5
24
25
EA
F2
26
06
F7
EE
2B
27
E0
0A
E5
FC
0B
0D
EF
16
28
14
18
02
EC
FA
F4
F3
F1
08
0D
FE
11
19
EC
04
EA
0D
06
17
F3
F8
02
F3
F7
14
FF
E8
F7
E4
FF
0B
FD
F4
05
1C
EC
18
F6
01
F4
08
01
0A
F4
01
04
07
FF
0D
00
FF
01
13
EE
F7
F4
F0
F6
F8
FA
04
11
03
D6
1B
03
F9
04
F6
0E
10
04
EF
EE
09
EB
F7
EA
22
04
02
0D
17
F6
FB
02
1D
0E
0A
EB
18
F5
0B
ED
EB
05
07
1A
13
06
02
0E
1E
20
F6
ED
F1
00
07
F6
04
0A
08
ED
F3
FC
F7
1E
11
0A
0D
EC
F6
0E
F4
F0
FE
F0
13
0E
0B
E1
DA
FC
F2
D9
DB
FB
FE
1E
12
F7
31
FB
DD
0E
EA
D3
FF
11
EC
EE
FB
EA
F9
04
E9
EB
EB
F3
12
FD
0B
E1
E3
F5
D8
E7
E9
E9
FB
14
E8
FE
20
01
FC
DB
02
D9
F0
F6
18
15
FB
01
0D
04
0F
F4
FE
21
02
0D
03
ED
24
EB
24
02
F4
19
01
0B
FD
1D
03
E8
EB
F5
11
0B
E0
01
0F
EA
EA
F7
1F
F5
E6
FB
09
F8
0D
F0
DE
18
BF
20
06
DB
DF
E2
14
FD
F2
08
14
0D
0D
05
FE
EB
23
0A
12
01
01
FD
18
23
09
E0
C9
F7
00
06
EB
FE
DE
1D
0A
E8
F1
03
22
30
EA
11
F6
05
00
EA
09
11
F7
18
E1
0C
F5
10
FF
22
D9
F7
10
F6
D0
03
E5
01
F7
EC
09
2D
E8
07
FD
E6
F4
04
DF
D4
14
FF
13
F5
E3
FF
2A
18
E0
F3
FE
FE
06
DD
07
DB
FC
FD
EB
11
FE
0B
F9
11
F8
E8
1D
F2
25
09
05
F2
FA
00
05
26
1E
F9
10
E1
09
17
0B
FC
F3
D8
07
18
EE
10
16
30
14
F3
DB
0C
1C
C7
E1
0C
0C
E6
DF
F0
F6
FD
D3
F3
FC
17
E3
12
08
11
0E
09
E5
06
0E
F3
0B
F7
FC
0D
1B
0C
01
F2
F2
13
1D
03
05
E7
06
D8
E5
07
0F
FC
F1
FB
14
00
0E
FE
09
E7
EE
E0
F8
D4
07
DF
04
23
D2
02
EF
0D
EB
E6
2E
05
F4
FA
FB
1A
F6
0F
14
E9
EB
D2
EF
09
EC
ED
F8
13
05
D1
10
03
E4
F7
F2
29
02
F6
07
D9
05
FE
21
F8
F2
FF
FD
BF
21
DD
E7
EB
EB
E0
FC
04
E6
1A
E0
D7
FD
00
FB
04
F1
E8
FD
10
0E
09
08
09
FA
F2
FD
DA
DA
1B
13
FC
03
EA
F3
01
14
01
E9
EF
03
E6
FD
F5
D7
FD
FA
FA
F6
08
1C
17
1B
EA
F6
FC
0C
EF
0B
2C
0F
FE
F3
EC
F0
FA
07
10
DE
04
E7
ED
FB
ED
15
F4
ED
1B
21
16
E0
ED
19
06
1F
F6
07
06
0F
08
E7
14
17
03
D6
F2
FB
06
E3
06
EE
FF
09
FB
3B
14
EE
27
F4
E7
09
14
FF
E1
FD
03
E5
EC
F7
FB
DC
2D
E5
FB
F2
FE
1F
DE
FC
E3
F2
EF
15
EE
F9
FB
ED
00
16
F1
E4
09
FB
21
0A
E5
FA
EE
19
F9
09
FE
FA
FA
F1
10
00
FB
08
F2
1F
EC
EC
E7
12
FC
F0
E3
FB
DB
30
13
F2
07
10
0B
E8
07
19
06
EE
FB
02
23
07
FB
0D
F5
03
E2
1A
33
0B
04
F2
13
1F
ED
02
E9
E8
0B
0F
F7
2D
F8
B5
33
05
EE
FE
39
D4
ED
E5
05
D9
1F
22
F2
D0
01
0F
F1
0B
E9
0A
FF
24
F3
FB
09
04
FE
07
FD
ED
06
03
F4
FC
DC
0C
1A
EA
E9
C4
F7
CE
FC
E3
DE
E7
CC
02
1E
05
1B
1E
FB
16
03
05
0D
F8
EF
0C
E7
34
02
DC
FB
FE
05
ED
17
C6
08
0A
24
FF
07
00
0F
EF
09
E1
FF
F0
11
2C
DB
40
DA
E3
E8
E0
1B
EC
EA
18
EE
FF
FC
E2
F5
F8
FE
F3
F9
02
FA
10
13
0C
E5
F4
EF
11
F9
19
13
F1
11
FB
EC
0D
05
02
14
12
EA
F9
01
F8
14
FE
FC
00
0A
EE
DE
0E
07
0D
08
1D
0B
F2
06
11
F8
00
08
01
21
FE
EA
14
1C
F1
1C
F0
05
02
0E
FC
08
09
13
F1
FC
15
18
11
EE
0C
01
07
08
08
0D
00
FE
0D
01
05
FA
FB
F7
0B
10
F7
FE
F2
04
10
15
FD
FA
09
ED
F3
0C
F1
F0
E9
01
FF
F0
17
01
F3
F0
12
F6
0E
F9
09
04
1C
0C
FB
F2
00
13
DE
F9
EC
06
F2
05
ED
F2
0E
FB
06
EF
16
EC
F2
F5
25
F4
09
01
01
09
0C
10
FC
F6
1E
DA
F8
04
FD
FE
FA
F1
0D
F9
09
FC
FF
03
F9
0F
EC
EC
15
09
05
0F
EE
06
05
FE
F0
FB
F7
09
16
07
F6
0C
05
0E
F2
04
E9
FB
02
0E
E1
06
E8
02
FE
FE
FB
EB
E7
06
F6
0A
25
F0
06
F6
FE
F2
0A
02
F1
F0
F6
EC
F1
10
E9
1E
EC
11
16
02
1B
03
E4
EE
FF
0A
09
FF
25
F1
08
F7
10
03
D7
FC
05
1B
19
FD
FA
17
F9
FA
06
ED
07
F9
03
E6
11
08
00
E5
FC
FA
F5
E5
07
F2
FC
10
10
F2
02
F5
0F
E4
EB
1A
08
FB
FC
E5
07
03
19
F8
F7
1D
EA
05
F6
F1
FE
0F
11
F8
1A
F0
FA
EB
E9
FA
FB
F5
FF
1E
F0
0B
F3
F5
FE
14
F0
FD
F4
DE
DF
1D
F6
14
F4
D9
20
1A
03
E1
22
19
24
23
0B
FA
E7
06
12
DD
EF
EF
00
13
FE
04
DE
0F
E2
D9
F7
22
F7
1B
EB
10
12
0F
F3
DB
E0
0D
EF
1E
23
FE
15
FE
FE
04
F9
19
22
08
DB
0A
19
30
E6
0C
18
EA
0D
F9
1F
15
09
1C
06
07
FD
EB
E6
F8
E3
E3
E9
F3
10
F2
0F
18
D0
FF
F8
F2
DB
02
02
F7
E2
E5
0D
D8
1C
12
1C
FC
DC
16
03
E8
13
F3
D8
03
DC
17
14
FC
E6
02
ED
07
EC
FB
04
EB
DA
18
24
1F
E7
0D
FF
05
11
08
0E
FE
E6
F0
F5
ED
17
04
E5
EE
15
E5
0C
00
19
0D
1A
14
D1
F9
01
DF
F5
EC
FE
24
FE
F8
FD
DE
F6
E5
FE
17
ED
E6
EC
F1
05
E5
C6
02
E0
E3
07
FE
DE
E7
09
18
E9
11
E3
DD
FE
07
17
12
0A
E2
F8
CC
EC
E1
F9
06
DE
08
0F
13
F5
FE
FC
0C
FA
1D
16
FF
19
12
01
03
F8
09
26
15
EF
23
F8
FC
FF
E6
FC
E1
F5
EA
F7
28
08
E7
0C
0A
0F
DB
E5
0F
F7
DA
23
DC
F3
1D
FB
05
EF
F2
25
0C
F8
ED
0A
F6
EE
1B
F8
F8
13
05
01
18
09
1E
F9
0C
19
11
02
09
F1
0A
2B
D1
27
23
FA
18
F8
1E
1B
18
F0
06
CB
F6
04
23
D4
F2
E6
07
08
EC
35
0F
1E
01
09
17
EE
09
DB
E4
0F
FA
03
F4
24
0B
CE
24
D1
0D
FF
16
CF
FA
E2
D4
EF
EF
F9
03
F6
0B
1C
0D
F6
08
09
F3
08
0D
DB
10
22
18
DC
F1
E1
00
F3
04
F4
E5
1E
EC
01
20
BA
1C
00
0B
20
0F
26
CC
03
09
14
22
33
00
13
ED
19
F0
11
FE
0C
0F
1B
04
09
09
EC
F3
08
32
0E
D8
CC
FA
22
FD
C7
FC
D3
FB
FB
D9
17
EA
01
D1
0C
DA
07
01
14
D7
F7
20
14
0B
EE
E1
F3
F2
F3
D3
F4
0B
23
14
FF
F8
EA
F3
2C
E6
DF
E6
EF
F9
2A
FC
FC
0D
E6
EF
DE
2D
D1
FF
DF
0F
21
2C
1A
04
35
E7
29
49
C4
E3
0E
E0
3A
19
32
FF
F6
01
D6
F1
54
FF
CE
E3
0B
24
D5
0A
24
03
0D
C8
1E
17
D9
E5
FF
1D
E8
C5
EC
ED
E3
F3
EE
08
24
16
02
BA
E8
15
02
E1
1D
11
0F
FA
19
EE
DE
15
E1
09
0D
1A
BF
0E
F2
0A
1C
E8
16
E1
EC
F2
38
24
20
E7
10
E5
2F
39
2A
F3
DD
1A
03
DA
D8
20
D6
D8
E2
42
F2
19
36
F3
42
16
34
37
D2
1A
20
F0
7F
25
01
21
03
13
F2
E8
60
E6
0D
10
F3
FB
D9
14
1F
11
17
0F
0C
08
F6
07
18
04
FA
15
E6
FD
0A
21
02
1A
09
F3
06
ED
10
11
EB
F8
1F
F8
F3
F5
EF
0A
F9
FA
F1
04
FF
F1
15
F2
FB
FB
07
F9
08
08
E2
0A
FA
06
E5
0A
F6
ED
08
24
0E
F9
07
16
01
16
E8
EE
11
0F
01
FD
ED
1A
E7
F9
08
F2
0C
1B
0C
F9
15
EC
14
E2
E7
0E
0D
FD
0E
11
11
0A
0B
1C
05
10
E5
F2
1F
19
0A
01
E2
FB
02
F1
10
0F
F3
10
EB
09
0B
1A
FB
FB
FD
01
20
E4
F2
0A
EF
04
03
0B
0F
15
E6
EB
0D
17
0B
D3
11
07
01
DE
E2
03
F9
0D
02
00
F2
23
E1
09
ED
F0
0F
EC
E2
F4
0B
FA
0D
29
EB
11
09
EB
12
FD
08
00
00
0F
F0
E9
E5
04
EC
F9
0D
F1
0D
F2
04
ED
E0
EB
DE
F3
EA
FA
06
06
10
F9
F0
FB
E9
FB
21
16
F1
05
FB
F8
0E
ED
17
0F
F6
03
EB
FD
FF
16
0C
F3
2B
03
1C
E6
07
1D
FC
F2
12
20
0E
03
E6
06
20
02
FF
D7
EA
01
0F
F1
ED
F7
F7
E9
21
02
0E
18
FF
0F
04
FE
FE
CE
FF
00
E1
09
01
1C
18
F4
FF
0D
21
FA
00
F3
08
26
FF
FD
E4
18
18
F3
07
08
09
15
0E
F4
F5
E2
DD
C5
02
01
0A
0B
01
27
01
F0
07
FC
16
DA
12
06
F5
F8
C9
E3
12
09
FD
30
21
18
ED
18
FF
ED
D9
F2
15
EE
08
DA
E6
FA
FD
17
F8
07
07
F9
1B
11
05
E9
21
0E
F0
F0
F2
F1
E8
F3
11
E3
0E
EF
F1
12
D9
EF
18
DC
ED
1B
F4
FE
28
1A
F8
F5
0C
EE
2A
CA
F1
EF
01
FB
F3
E7
F0
F5
E6
DD
12
13
EB
17
11
E7
FB
D6
F7
F7
E6
18
EA
14
0A
03
E7
01
10
1A
F7
08
F3
01
F8
17
17
14
FC
F0
20
10
0C
18
F8
FD
29
D8
D0
E2
06
EE
F7
D6
EC
FF
08
17
1A
08
08
FE
EE
15
18
F3
EB
01
18
20
F6
1A
01
12
F6
F0
FC
FA
FC
11
E2
0F
23
04
1A
1A
05
F6
03
0B
11
FE
F9
F9
F1
CE
E0
00
E7
03
02
F1
F1
12
11
01
01
F4
02
F6
F3
EE
E5
F5
FF
FE
D8
0A
25
FB
EA
FB
06
FD
24
28
C1
05
FF
DB
F6
14
ED
DC
00
F6
08
22
15
27
26
0D
23
0C
D4
08
CC
EC
F9
EC
F2
EB
E9
D1
20
1E
E3
F9
E8
FB
E1
D8
FF
15
3E
E7
0C
08
18
FD
05
02
0B
DF
FD
E5
02
11
FA
E9
15
14
0C
07
E8
CC
07
07
EE
00
C6
05
D7
00
E4
F9
35
E3
D0
EA
16
EF
16
0D
FF
02
E2
1D
E2
FC
FD
F8
D4
08
15
22
F9
FD
D4
EC
14
0A
07
0B
F3
CA
EF
0A
ED
F0
F2
36
F6
DA
10
FD
0A
0B
F5
EF
EB
E4
05
16
03
16
0D
07
F5
FA
03
E3
E9
0C
1D
0F
F7
DC
03
F4
1B
F5
CA
FE
FD
F6
F5
DA
20
F5
05
D6
06
F8
F8
04
E5
F9
F6
F4
07
21
0E
17
08
EF
00
FA
00
08
E8
20
D7
19
10
FF
04
19
FF
0C
19
0D
26
10
20
BC
0F
FF
F4
F7
26
F6
F3
CF
01
01
20
0C
E2
EC
10
C1
06
01
FE
EE
B4
01
05
00
26
06
D7
F8
D8
F5
17
07
FE
F4
07
F1
F5
EB
21
06
01
23
F1
ED
1A
FD
00
CE
13
1B
12
06
09
02
EB
CF
21
08
EB
11
E9
EB
05
E7
F5
18
F9
FC
FB
FE
03
14
14
21
EC
EC
E3
0A
F7
15
F5
27
0D
14
FB
35
F0
05
30
FB
EC
F9
01
05
F5
E6
09
FF
06
0D
16
06
02
C3
FB
17
2C
EC
29
19
01
CA
0C
F7
04
0B
C7
F3
E8
1F
EA
E4
CC
D7
02
FA
09
E0
03
1D
09
06
E8
E2
FA
FF
E6
FA
2E
15
02
1A
20
08
1D
CE
04
F6
F4
20
FE
F6
30
E4
EA
06
08
F4
2A
CF
1C
15
F2
11
08
EF
14
F6
19
05
00
1A
F0
F4
22
3A
1E
2D
15
1D
DE
1B
08
3A
1E
27
08
1B
3D
17
12
09
F7
09
00
0F
3E
F1
05
07
F4
F0
09
EF
12
FB
F1
DD
01
09
25
19
13
1D
DB
01
02
17
16
02
20
19
F7
F9
FD
14
01
24
1F
1F
08
0C
ED
08
25
FF
07
0B
00
04
EB
01
20
EC
0A
FF
D2
22
0A
1E
32
FF
21
07
EF
EA
F9
FE
E4
E1
00
1E
FA
F2
1E
12
F4
E9
EA
DF
0C
0A
05
04
23
ED
15
E4
02
16
0A
0A
2B
03
16
FF
07
18
05
0C
F2
F6
F6
F4
F9
0C
F2
E8
0C
15
06
0E
0A
E7
FC
FB
19
E7
F5
18
FA
05
FC
08
03
08
16
0E
1F
0C
02
FD
E3
FC
14
FA
E1
1A
E1
15
02
11
0E
E9
F8
1B
FC
0C
02
FF
10
E9
EA
15
12
F0
15
FC
FC
F5
1A
DD
DA
26
13
05
0D
12
E5
F7
05
FE
0F
F3
FA
EC
FD
27
E2
EA
0A
22
F0
0B
FE
E4
08
02
F7
FA
E3
18
10
EA
EC
12
F9
EF
09
FA
E8
09
F3
EF
02
F2
00
0C
E8
F0
00
FF
00
EB
D8
F7
F6
F8
0B
E8
DA
0D
FA
0A
12
02
0F
36
E6
F9
14
F6
FA
10
E8
EA
09
06
F6
01
F6
22
0C
F0
EE
DD
FC
14
15
F3
FB
09
13
EC
FF
E4
0E
05
E2
22
E9
0C
F6
04
10
E8
F2
03
02
DB
0B
ED
18
1D
0E
E2
E1
F3
F6
2A
F7
FA
05
E2
09
E1
DE
03
F0
10
09
05
E6
10
0C
D2
F1
14
16
F6
18
00
0E
22
09
0E
20
2C
16
07
0D
F8
D6
29
09
F9
F3
F1
FF
F7
11
F4
02
E8
E3
0D
E1
00
27
2A
E4
D9
13
E7
E8
FA
1C
E2
0C
24
10
06
F0
D6
C6
38
E4
16
F6
2D
15
05
11
F2
2F
1C
F3
10
EF
16
14
2F
E1
06
F3
EE
03
FA
F4
E7
07
3D
DD
DD
39
F2
ED
25
07
19
07
08
15
04
0E
D2
F2
FE
D7
22
09
FD
0C
03
03
08
1F
FD
08
0F
1E
EC
DB
F0
1B
00
05
12
21
E6
08
1A
01
F3
01
01
F1
F6
17
02
12
E2
D3
0A
32
0B
0E
19
2D
05
FD
13
19
03
D3
FC
DA
25
01
0D
DA
11
19
0F
F2
10
E4
0D
F4
FA
21
03
E5
0C
E4
F4
1B
F5
06
F8
F8
F8
06
F9
11
FF
01
FC
1B
EA
10
E3
1C
FA
07
FF
F4
EC
ED
07
05
0A
02
13
F2
0E
27
E5
14
F2
10
02
15
FC
EB
EF
00
19
20
F8
0B
E8
13
16
F2
F2
00
E4
E4
08
04
DE
E9
03
DC
FD
E6
F1
FF
E0
FA
14
00
28
D7
DB
F9
2A
FC
10
14
EE
FE
2C
0D
24
F9
11
29
04
E2
EB
DB
F1
F1
E9
FA
20
1B
E4
EF
F5
D4
12
25
0E
DC
D6
42
24
EF
27
EA
F3
07
F0
1B
24
F0
E4
DC
06
15
0A
EE
1A
03
04
20
19
17
02
F0
E6
0C
EA
E6
0A
04
07
FC
15
F4
E6
16
09
E6
D8
F4
1B
E2
17
0B
F2
E5
15
EB
FA
16
F2
FC
20
1C
15
F8
00
09
F0
FE
13
1C
14
11
07
20
24
18
11
10
15
02
0C
F2
F0
FD
0F
06
08
F2
02
0F
FD
F6
0F
FB
18
E8
FA
0A
F0
13
0F
E8
15
26
F4
FF
FF
19
F9
EE
18
ED
12
E8
F6
F9
22
F5
EE
D6
18
0E
F7
F9
12
01
07
F9
EF
15
E4
DC
FD
15
1F
F0
11
00
FE
08
E4
E4
0F
12
E8
13
17
0F
17
09
02
E6
05
28
E7
1D
F1
E4
EE
F7
EF
F4
0B
11
FF
13
11
FB
0C
F3
F2
26
0F
FD
E7
DE
F8
0F
EC
F8
08
1B
EC
07
F8
ED
05
D0
1A
FC
08
0F
0C
F3
02
0F
1D
EE
26
19
F8
01
F5
0F
16
E2
10
19
29
EA
0A
FF
E0
09
F6
E3
FE
EF
F2
13
E8
13
01
F3
F7
10
EE
0D
0A
FC
03
E3
03
03
0E
FB
17
00
0D
17
FB
EE
17
F1
06
E3
F4
E9
F1
E7
14
09
DF
15
FD
00
0F
EA
09
F0
1F
FB
29
DA
E7
E1
10
0D
20
38
08
D0
F2
12
0F
F0
FD
18
EA
04
E0
02
EF
DE
EF
F5
E1
F7
19
E8
26
F7
04
FA
1B
06
F1
14
F7
FC
EC
0E
15
EC
0F
E5
0E
F5
0F
0E
EC
15
D6
19
08
E8
15
FB
D7
FB
14
0E
02
F4
FB
0A
06
EE
F7
E8
06
F3
EB
0B
FE
0E
06
FF
E9
EC
F4
F6
ED
F6
F0
F8
07
E6
FE
02
F6
F0
00
F6
F6
FA
F6
ED
EF
F4
FA
06
FD
EE
F0
EF
FD
0C
FD
0D
F8
EA
1A
F1
F4
E0
F9
12
FA
14
FB
FE
F8
FA
F5
EB
F8
07
E6
03
00
11
F6
05
0F
11
F4
FA
E6
0E
F0
09
E6
07
E7
F1
E2
E7
F0
09
EC
03
F6
F9
04
EE
06
0A
04
F5
FE
E3
18
F6
0E
00
09
09
F6
EC
E9
06
F4
0A
F0
00
F5
0D
02
F2
07
15
10
09
F8
00
FA
F0
F3
F8
EB
FD
00
10
07
02
0A
03
FE
17
01
00
ED
02
F8
13
F8
EF
11
ED
12
ED
F5
12
11
04
F3
06
FE
E1
EB
FA
EC
02
02
05
E4
0A
08
03
F2
F9
01
0E
03
07
FE
02
E9
0B
03
FA
EE
E6
FF
07
F0
FD
0F
0E
04
0B
E5
F2
07
01
F1
F0
02
02
0F
F6
EE
E7
F4
04
F4
02
F7
0F
EF
FA
F8
02
EE
FD
05
F9
07
F0
05
01
FC
E6
FF
F4
07
F8
ED
E1
07
14
04
FB
09
15
F5
ED
09
FD
10
0D
F8
EE
02
08
F8
EA
F6
00
F4
ED
F6
04
F5
FD
EE
E4
F7
0C
04
FD
F2
F0
F3
04
0F
00
FF
F1
EA
F1
FA
1B
F1
E9
DF
F4
DF
DB
F4
1F
F8
F3
03
F6
F3
F9
E5
F1
FE
F2
00
18
18
F1
18
1A
06
D9
00
10
0E
09
00
F4
DE
04
05
DB
15
08
0E
17
14
FF
CF
F3
E1
1F
F5
05
D3
F9
0B
DC
24
D0
1B
00
06
E7
04
24
11
F2
25
10
04
0B
0C
04
25
F5
0F
D7
19
FC
0D
F7
E6
F8
09
DD
01
01
D9
EB
08
EF
F9
0B
D8
FE
00
0C
EA
F3
FD
16
16
12
F8
09
29
19
15
11
02
1C
D8
22
08
F4
13
DF
0A
E4
02
EA
F2
03
1E
FB
09
F5
FD
0D
04
15
F8
FA
E2
F5
E9
22
FD
F9
13
10
FD
13
0B
DE
EE
26
21
D4
EF
F0
02
E3
F0
CF
FB
1C
F7
07
1D
29
FC
E0
F3
0E
0F
EC
F9
01
0C
2A
DE
0A
33
0F
03
EF
1D
0A
06
C3
CE
D6
FF
F5
01
DD
EB
0F
DE
28
E8
12
DB
34
F7
1D
04
EE
22
09
32
EA
F5
13
38
CC
05
13
0E
FA
19
07
13
05
FD
17
0C
07
F1
F9
24
2A
16
EC
E5
26
DD
0F
12
24
15
0D
0C
0F
0C
E7
1C
FC
16
DC
E4
ED
14
E3
E8
E0
23
19
EE
D4
20
F3
0C
02
E3
03
F5
0B
DF
01
13
D8
1C
FC
E7
34
27
07
35
1C
FE
2A
E2
06
FE
E4
DF
0D
1C
DE
FB
F7
E5
E3
EC
0C
CC
2F
24
2A
E4
16
DE
EA
FF
FD
F6
15
E6
F6
3D
E3
20
FE
04
FB
03
D4
11
FC
26
01
F2
08
01
FE
08
F3
E4
FB
01
0A
16
07
0C
E5
F3
FD
12
DC
10
12
F5
06
11
13
10
E2
E8
1B
D5
FD
04
F5
E6
06
19
EA
0D
F0
DE
E8
1C
06
0E
DE
2C
EA
FF
F7
FC
1F
10
11
04
05
12
0D
14
22
DE
FD
01
FD
11
FE
2A
DA
FC
07
03
F5
EE
1C
F6
0E
FE
F4
EE
FE
06
EE
FE
F7
17
E6
24
E6
FA
1B
16
C6
02
F2
DD
F3
FA
D5
F4
FB
F2
F3
1D
E3
D7
11
03
11
04
F8
FB
F0
19
11
16
FA
13
12
1D
E5
1C
13
0E
1B
DC
04
04
F3
F8
FE
E0
F4
1C
0F
F6
F4
01
D5
05
ED
DE
E9
20
05
FE
F2
02
EB
EB
0E
0E
21
FA
19
09
21
03
D7
07
E7
FD
D1
11
F1
14
06
E6
24
0B
F6
FF
01
0F
F6
BB
F3
11
E2
14
F6
FC
0A
FC
02
FE
F2
15
D5
0B
FF
D2
FC
E3
F2
FE
00
E7
FC
ED
F0
0E
12
0E
EA
FC
EF
E5
02
FC
08
13
FA
F4
11
FD
0C
27
EC
E3
F7
E4
0E
E2
EB
02
0E
E0
09
EB
EA
FC
ED
EC
F4
0E
00
F5
EF
29
24
FF
F5
F5
F6
10
F7
D7
26
09
01
F9
07
F6
D9
08
0D
FE
D6
06
EE
0C
F2
E3
EC
20
05
F5
D7
EE
FC
D0
27
12
1A
1A
E7
DE
13
F2
DC
0F
E6
FA
B8
11
02
13
13
F4
FC
11
1A
10
1B
EF
EB
03
E2
FA
FC
10
1A
FC
FE
06
EB
24
F0
23
F1
02
18
FB
1D
14
EA
FD
0A
EF
FA
1C
F6
F9
E1
0C
E5
0B
EF
FF
DF
17
F5
01
F8
F9
E9
E2
DE
FC
D5
FD
0A
09
FF
0C
23
0E
FB
08
F8
F3
0C
E5
08
F8
10
02
F0
FA
F4
DD
E5
11
F0
F3
16
DF
F7
EC
E0
E3
F1
1A
00
FD
10
0E
19
0E
F5
E1
F6
10
E8
EC
E3
07
F8
F5
11
0D
D1
F9
08
0C
20
E0
E1
F1
16
09
10
F3
FF
0E
15
E7
EC
E4
FB
FF
FE
14
03
00
06
0E
DF
E8
15
06
14
EE
04
1A
15
EF
22
FE
10
E7
F3
0D
FC
0A
FE
24
F3
15
00
F7
00
F8
05
FF
E4
E6
08
1C
FD
1B
E6
0D
10
E6
06
07
FA
0C
0E
12
FD
10
E9
EC
0F
07
F4
ED
F5
1B
FD
15
1A
EA
12
F2
E5
04
15
0E
06
0A
0A
13
03
0A
E7
EA
FA
0A
1E
E9
EF
00
F0
02
F1
F8
0D
F6
F7
E5
09
05
03
E4
EB
EA
D6
DC
F9
01
24
FF
D4
03
FF
DC
09
0B
15
FD
17
EE
19
E2
E4
01
1F
0D
FB
FA
00
0A
F6
1A
07
EF
16
04
D5
EC
22
1F
0E
23
C7
02
E1
D9
F7
E7
16
FB
15
03
1E
01
FB
1F
FA
09
07
E6
FA
36
FB
1E
06
E7
F9
F6
FB
04
E0
19
F2
10
05
22
0A
04
F7
13
0D
09
F3
E0
F9
10
DE
14
1E
E0
12
FE
1A
13
15
DD
FD
10
08
E8
19
03
FD
13
EB
01
15
07
F6
03
EF
04
FB
03
F0
08
FA
D2
DD
06
DB
23
E6
EA
E9
D5
E5
14
0F
E4
E4
0B
22
21
DD
12
D5
05
25
F2
0C
05
02
15
07
E9
D0
E9
E2
29
DC
06
01
F6
23
ED
F4
E6
C3
CE
0C
FD
19
FD
EA
22
12
DB
CE
0F
EC
F0
F6
DC
E3
05
F8
FD
01
D8
E7
11
19
0C
F1
06
05
E8
F0
0C
1D
F1
EA
F5
17
EE
F9
0D
EA
06
F6
0A
11
F9
ED
E4
FF
DD
FD
0A
11
01
EF
D6
28
F4
DD
22
CB
C5
1A
FE
FD
D9
1C
FB
CF
F2
0C
17
F9
FB
F4
F5
05
0E
17
1A
F8
E7
00
E3
E2
08
13
13
E1
02
31
20
04
FE
DE
F4
E0
C7
D5
EF
F6
02
07
F4
0B
01
CF
FB
EE
13
0C
DE
F9
F5
ED
E9
D5
D8
FB
3C
CE
F2
1E
0F
1D
EB
E8
C8
FC
0E
15
15
1C
F5
E3
15
EA
F3
0A
E5
09
FC
F5
E6
1A
0D
02
F5
10
F5
0C
F0
F7
EA
08
FA
D9
D9
E1
EB
CB
0C
20
FB
C6
0A
E8
DB
F2
0B
F3
EB
D8
14
00
F8
01
EA
F3
E9
D9
F0
EF
F0
02
0E
23
F9
08
DC
D9
DD
CB
E0
CC
F5
F2
11
14
E8
26
11
08
E1
11
E1
E5
E3
3F
02
F1
1F
FC
EE
D1
DC
ED
0C
C7
1F
27
E4
31
02
1D
20
21
1A
40
13
20
25
1B
EF
F6
F8
04
1D
11
07
11
10
F8
13
F2
11
19
E4
07
00
06
F9
3C
16
D0
40
16
DA
FF
16
27
32
E2
F3
D7
03
D6
14
E8
C5
CB
28
1A
F5
00
EB
12
D7
FE
EB
F7
19
29
E4
00
E5
F0
18
06
FA
0F
E0
EF
1E
FD
1A
20
F1
14
F4
F7
1E
F7
D6
22
E2
D4
FA
FD
2C
FB
22
F2
ED
F2
D3
18
F9
15
DA
21
02
1B
D1
E9
0B
07
00
0B
F8
EA
26
EB
07
17
26
1D
F4
11
FF
2D
04
08
00
0A
08
F6
1B
28
F3
F1
16
17
F5
06
1F
0D
F7
CE
03
EC
07
E5
FE
E3
03
EF
1C
11
0E
FD
0D
F3
ED
10
19
24
0E
18
04
11
F1
F4
FF
EA
FA
22
E8
20
EF
D8
FA
11
0F
19
BB
16
EB
17
DD
06
CB
E3
01
FF
3C
1C
1A
E9
E8
F9
FD
15
0E
DE
D3
F6
25
E7
0A
DF
E4
01
0C
E9
E5
FD
DE
02
1A
04
0F
E7
F4
E2
F5
F6
E7
D7
20
04
09
08
17
F7
E6
2E
CA
41
37
EE
06
FC
13
E1
E1
E6
E2
EA
E3
0D
EC
E5
05
F3
11
02
F6
E6
E4
22
12
2A
E2
28
CA
E6
E0
22
AD
D5
11
08
CD
13
E4
14
09
05
0E
0E
0A
EE
22
CA
08
0B
F0
DE
FE
29
18
F6
DF
15
E9
10
E1
EB
0B
F7
05
0E
EA
12
17
09
EB
F6
1A
FC
19
E2
FA
10
01
F3
E7
F2
FD
04
F6
24
1C
1D
11
E3
F6
D9
FD
F4
18
21
00
17
29
F1
E3
E5
0A
FE
E5
1C
F7
13
E9
D9
10
13
16
FE
FF
C0
FD
26
FF
FC
F0
CE
1E
DE
DF
03
22
1E
20
EA
2E
16
1D
D4
1D
1B
F8
1F
FF
EB
04
1F
02
FF
09
D4
E7
1A
EA
0B
0F
04
03
F4
F2
12
03
07
ED
1C
1C
FE
F9
05
0F
E9
EA
F9
18
EF
ED
03
07
15
F8
FE
0C
02
1B
06
2B
E0
FF
FD
FF
16
1B
D0
01
15
F2
22
07
FF
FE
FD
EB
E6
E2
02
FF
E6
06
DF
17
EB
E7
F1
DB
05
2F
E6
FF
05
FE
F3
CF
0B
14
12
38
E6
E1
13
17
E3
04
E5
0A
F4
13
17
19
10
DA
F7
2A
29
2D
E6
F5
EC
01
E1
28
DA
0A
0A
F2
F0
17
E5
14
F7
F5
09
0F
F0
1F
33
14
E4
EF
0D
10
BD
EC
D4
E5
0C
E2
F5
F3
FB
22
D8
11
CC
0C
DD
F8
FD
21
12
0B
FE
13
07
15
F9
1C
09
2E
1E
ED
2E
37
C3
BB
FE
F4
F9
00
15
F3
02
3E
EC
F5
DA
E4
D8
FF
27
33
1E
4A
F0
FA
DD
E0
02
BE
BA
26
02
0A
FD
0E
F0
FA
FA
0D
12
FA
05
F4
FB
FF
ED
FE
FE
FE
F3
FA
00
09
F7
0D
FF
F9
FE
FC
0F
F9
F4
04
09
F7
04
00
FD
F2
FF
FE
FC
F5
FD
04
0B
08
09
EE
F6
F9
F5
FA
F8
F5
FE
0E
05
FD
F1
01
FC
F3
F7
FD
F7
F7
08
FC
07
05
FA
0F
07
EE
F6
FA
F8
FB
06
F9
F6
09
F7
00
0E
0B
04
05
05
EE
FB
0E
01
01
03
09
0F
08
12
09
F2
F5
FF
07
05
04
FE
10
FC
0B
F9
ED
0F
ED
08
00
0C
F6
F6
02
01
FF
FB
03
FE
F8
F1
08
F5
0D
FE
0A
EC
F8
F2
03
FA
F4
F6
FB
02
0D
FB
FF
07
F9
02
0F
04
FD
09
14
10
07
EC
01
F7
02
F1
03
0B
F7
05
0D
FA
F1
FD
00
02
FD
08
F7
F3
F9
09
FE
04
03
F8
FB
00
FB
05
0A
FE
F1
05
F5
11
05
F7
0E
0B
0B
08
05
EF
F7
02
13
F1
0D
11
01
F7
0A
F5
E4
FD
F2
03
04
03
0D
FF
14
05
05
F5
FD
01
FF
E6
0D
0B
06
09
0D
F7
F6
02
13
09
E6
FD
01
01
13
F1
E8
F8
04
07
F8
0E
05
00
F6
FA
E9
00
06
F3
0C
06
FC
FF
F8
0E
11
02
F2
F9
05
F7
FB
06
FA
07
11
FA
EB
EB
EE
02
0D
02
FA
0B
0B
FB
00
EC
F3
01
FB
F6
F7
06
03
0C
D6
F6
F0
F0
08
F6
17
0A
D9
10
C9
12
E2
D8
FA
F5
09
0A
EB
CF
F0
F4
09
04
F1
03
E8
F9
08
F3
D4
1D
DF
14
FE
18
2F
FE
17
0A
F5
18
0E
FE
E1
FF
11
0F
FE
E8
FE
01
01
DB
E3
EB
32
FB
25
08
04
02
EE
E6
FC
EE
15
F6
0F
0D
FD
EF
F2
EE
D4
08
F1
F9
12
D9
19
11
D9
0E
02
0A
05
13
3B
DC
1A
0B
03
FE
E2
18
FC
00
E5
0F
00
18
0F
02
03
17
D0
FE
ED
00
E5
EA
DA
00
FA
F9
05
DA
12
15
1B
12
E8
F0
08
0E
EC
F6
DB
DC
1D
EF
1B
18
17
12
06
E3
E6
E4
FB
1D
EC
F0
10
03
E8
CE
15
E8
F5
EC
DB
FE
E9
FD
E1
E7
06
02
FC
16
E5
06
F8
25
0A
F1
19
05
FA
02
27
0E
09
D6
E8
1C
F3
05
F2
03
E7
05
FE
E6
07
1F
09
EF
02
F2
EA
14
1E
05
0C
E4
F2
14
FA
E9
EF
15
15
ED
11
0D
19
10
F7
E4
F6
15
F4
01
E6
35
01
19
04
1A
02
FE
06
14
F6
21
15
00
0C
0D
FA
04
10
01
1F
DD
E9
D8
03
22
FB
08
11
D9
ED
11
E6
EC
D5
07
08
DB
21
ED
18
F0
D6
04
F7
1D
15
14
E7
01
1C
E6
00
D0
CB
D0
F5
F9
E5
EE
22
FE
DB
EE
0E
F7
D1
F6
0D
0A
11
F4
1A
FA
FB
FE
08
F2
13
19
FF
FB
FE
05
05
FE
E5
FF
F3
FD
0D
FD
F6
0B
EB
14
FC
1A
EA
F2
0D
06
1E
16
FE
0D
13
03
F0
0B
00
F8
E7
EF
0B
FF
07
00
E7
ED
EC
17
08
12
08
08
F6
FD
EF
04
06
0D
19
F4
F9
D8
FA
0D
12
E7
16
03
04
07
EC
0E
F8
F1
18
E5
EC
F7
F7
0A
06
0B
1C
FD
E2
F4
FD
EC
E4
02
F8
EE
02
16
03
0F
ED
04
02
F8
EA
F8
E6
E6
18
03
06
EA
0F
F9
FA
02
F9
11
EF
EF
FA
0D
0E
FE
E9
E6
0E
17
18
F4
F1
E9
E5
02
0F
06
09
1B
F2
E4
F3
FA
02
0C
03
F9
F7
20
12
11
19
EE
00
F7
10
F6
EC
11
11
09
0B
F5
09
FA
E7
E3
EB
12
ED
0D
E7
E0
06
F8
FC
D6
EA
FE
09
0E
0E
F0
10
25
F0
E4
0B
E3
EA
07
15
E5
1F
0B
0D
FB
04
F0
EB
0F
E9
16
09
F1
1D
F7
0C
03
FC
E8
F2
0A
1C
F3
FC
FF
F5
EC
FD
10
12
F0
F3
EA
15
20
07
03
EE
FE
0D
FE
FF
0A
DD
08
12
EE
DC
08
EA
0D
F3
F5
03
EF
FC
08
E4
E8
F9
13
EB
EE
F8
02
11
FE
00
01
05
F9
F1
F1
DE
EC
F1
F8
25
00
EC
E4
D1
EB
E6
16
1B
09
02
FC
F1
E2
E8
03
C8
0C
ED
DD
08
E8
F7
FD
02
05
14
D5
E8
FC
0F
FE
E9
F4
27
18
0F
F1
E7
15
F8
E0
00
E7
13
14
E1
EC
05
14
F4
10
E0
10
08
07
EE
F7
0D
E6
F0
1D
F1
0C
0F
10
39
26
08
EC
2E
F7
ED
11
F2
E6
E4
ED
1B
12
DC
0F
FD
14
EE
08
14
06
EB
F1
18
17
18
C3
DD
0E
EE
11
F0
14
DE
C7
D4
02
D5
F7
1D
DC
0F
1B
E7
07
FA
20
28
FE
06
DE
06
14
09
1D
14
F5
28
14
10
02
FE
F0
25
0C
01
F5
1A
F4
18
00
0A
D7
0B
EE
24
1C
F7
09
F7
F3
E9
04
EA
E7
F2
03
EA
01
18
0B
DB
E5
0C
E1
E8
EC
13
F4
27
F4
0F
F5
0E
06
F2
F6
E7
E9
01
F1
F6
E3
08
25
F8
04
FB
DC
2A
F3
1E
CD
D0
F5
DA
F2
E4
E8
01
09
EA
03
E0
E1
0A
DA
EA
26
1A
11
0E
F9
13
FD
F2
F9
0F
00
0E
F5
11
FD
01
06
FD
F5
DB
E6
0C
E2
0C
06
F5
0A
25
FB
FA
13
21
04
F8
00
F3
07
24
00
E1
FB
04
F2
F9
13
0D
26
01
13
F9
D4
21
D0
DA
E8
22
F5
1F
EE
22
10
F9
F0
1F
EE
F9
25
D9
12
EB
07
FD
23
0E
0F
D4
DE
EE
32
18
ED
F4
07
00
FD
CA
DB
DC
E8
DD
2A
0C
00
FF
F0
F4
03
ED
F1
D6
0E
25
02
16
FD
F8
F4
EC
08
16
F9
E5
ED
11
FF
01
FF
FC
0D
EB
D9
1D
F6
F5
09
FD
F7
01
13
F1
01
13
FC
02
FE
15
22
03
04
06
10
E7
1B
14
26
07
F4
15
18
01
0D
ED
09
09
EE
0D
07
FF
FE
F5
F2
EC
0B
E7
FE
11
F5
1A
14
FB
E8
EA
E0
EB
2B
F3
F7
F9
F5
14
12
0B
F7
F9
FB
0B
EF
01
18
FD
EF
04
ED
F7
ED
F7
F2
07
13
13
1C
04
DE
E8
0D
EB
FC
FB
0F
F5
E7
23
05
03
17
F8
E0
1B
15
FC
EC
F8
0B
F0
EE
D7
00
0E
E6
EA
F3
1E
FF
FD
0F
16
05
12
29
02
18
00
ED
11
F8
10
27
F6
05
16
01
F6
12
0B
FD
0A
EC
13
00
EE
F0
F4
E3
FB
0A
F0
1C
19
F4
F2
FF
F2
19
18
F7
EB
E5
0A
06
13
EE
01
E9
F7
07
FB
FC
15
EE
17
18
09
01
EA
DF
0F
1D
F9
09
02
E5
05
07
0E
FC
F1
DD
1B
0A
E7
07
F4
08
F0
F8
ED
F6
0F
0C
0C
F0
E6
02
E8
EB
05
F0
14
0D
05
1F
10
EB
29
0E
ED
09
03
EA
EE
29
0A
05
E7
0B
E8
F1
14
0A
02
06
0A
E8
08
FC
F8
06
F3
09
18
EC
1F
FE
FE
E9
FB
F0
E9
18
F5
FE
FF
F9
FA
1F
03
05
FE
FC
FE
F0
0D
0C
0C
E1
0A
0D
F3
FD
02
F0
0D
08
07
E0
FB
20
15
FB
E6
15
DE
14
F2
14
F1
DC
16
F5
EA
1C
E7
10
16
FB
F9
13
15
E4
0A
07
E8
09
F2
FC
05
F5
0B
0C
09
12
FE
15
E9
0A
07
1B
0B
DC
0E
E0
01
1A
EE
0A
15
FC
DC
1F
1F
FA
17
06
F0
06
03
FB
FF
F1
EF
F8
EB
08
E8
05
0E
FD
F2
02
F9
FE
00
06
EE
19
FB
08
FB
00
09
10
17
07
12
0B
F9
0C
F5
19
F9
00
F9
ED
07
00
E3
10
EC
06
0D
14
E7
FE
00
06
08
1A
02
0E
0C
F3
E2
07
F6
01
FB
0B
F2
EB
0D
08
EA
E2
EB
0D
02
EF
DD
F1
E1
EC
F3
0D
0B
EA
0C
E7
DC
09
F5
06
0F
FC
F8
18
06
EB
16
02
EB
F3
F4
19
01
EF
EB
06
FA
F6
EF
1B
04
0B
F6
ED
03
FC
FB
E7
F7
0C
FB
FD
00
EF
EA
04
02
19
F6
F8
04
FD
17
11
F9
F5
13
07
05
14
F6
10
23
1D
EE
24
EF
FE
FF
F0
18
F1
03
12
FD
DE
DE
0E
04
0D
0E
0D
F6
06
0F
01
EB
FE
EB
07
FF
04
EB
07
FB
15
F0
0A
E0
FF
EC
07
03
13
F8
11
EF
FA
E3
15
EA
EA
0F
FE
10
EF
13
05
04
F1
00
0B
E7
16
EE
18
20
08
02
0F
0A
0C
03
FD
0C
20
0D
F3
F9
F3
F5
16
08
1B
E5
0A
F4
EE
01
02
EF
08
1C
F7
06
09
F4
08
06
05
EE
17
05
DC
04
29
E2
0F
15
FB
E3
FE
0D
1E
E5
F7
CF
1A
FA
04
0C
12
E2
0E
1E
23
0E
E9
FA
E4
21
04
15
28
F6
D6
23
EC
04
03
0A
E0
F0
0B
EF
F9
FA
01
04
13
14
1E
10
05
F5
17
17
E8
17
D3
0A
0C
12
F5
0F
08
02
FF
EC
0F
0A
1A
E4
E9
09
1F
F9
28
F0
0D
20
0B
DB
19
10
05
10
0C
E3
25
11
1C
F2
18
F4
F4
FD
07
FE
F7
09
32
FD
15
21
F8
EE
03
0A
EE
FA
DE
FF
1F
03
F9
0F
DF
F0
0D
14
15
23
EF
0B
EC
0C
EE
FD
0E
0B
EC
E5
09
14
F1
F2
FC
E0
21
18
E4
0D
0B
0D
26
15
03
22
D8
F7
F7
14
12
02
E3
F0
F3
31
21
F5
23
24
1C
F7
DD
F3
04
EB
17
03
F7
23
15
10
DF
E0
19
16
E6
E2
13
0D
EC
16
F9
F2
F8
17
01
DC
03
08
F0
EF
FC
ED
23
20
32
08
04
35
14
FA
D2
08
16
DB
13
21
1A
28
18
01
E3
0B
19
2E
D7
ED
15
34
01
0C
F5
F8
CD
0F
DA
2B
FF
1F
E7
19
30
1A
FE
13
FB
DE
26
18
FE
09
09
F4
EE
FD
19
14
0A
F4
12
3C
FE
ED
FB
0C
31
0B
F6
E7
F7
DB
ED
F3
06
22
F5
26
23
EA
E8
03
FC
0D
E3
E3
E0
E0
FA
05
F5
FC
E4
E1
DB
2A
34
06
F1
FC
0A
12
14
08
24
F1
02
D6
0F
DA
CB
17
07
FE
09
F4
E1
FC
FB
06
0B
EA
0E
D9
F1
24
CF
FD
12
04
1D
14
FD
0B
00
DC
30
FA
0E
F3
17
E1
DC
1E
02
EE
F5
E2
D7
EB
1D
F4
1C
D9
0D
F2
00
15
14
2A
FB
12
1E
DF
F7
F7
E8
24
0A
D0
F1
0D
F9
F2
D8
E5
1D
D8
C9
19
09
EE
F1
EE
17
1D
17
E5
DF
0B
FD
11
04
06
0F
02
14
FB
16
10
20
E3
04
1C
F2
E1
EE
1B
D7
00
1D
FB
10
16
F3
0F
26
08
12
FA
05
F6
FD
DA
11
E0
F3
EA
0C
DB
E5
02
E5
0E
E7
00
22
0F
DD
02
DC
C9
FF
0D
EC
F2
12
13
FA
12
DE
10
F5
EB
FB
0D
F8
06
02
21
0B
04
F3
00
07
09
F6
16
F2
19
EA
EB
02
0A
F5
E3
1A
05
FC
ED
E0
02
EC
FC
05
2B
0F
DE
03
D6
DE
10
F9
1F
29
EC
ED
DD
1F
F8
EC
E0
0B
01
DE
EC
2F
E1
FC
1A
0E
13
D5
EA
4A
FC
E5
00
DD
EC
C9
04
37
1B
F8
C8
20
F9
E8
E8
CF
1C
14
DE
14
23
FB
EB
E4
03
FE
12
FF
25
F9
F9
1C
04
2A
3E
EE
01
E1
1C
2E
E5
23
18
D8
15
0D
05
08
19
C2
EA
E8
E2
1D
FF
03
E5
04
2E
01
F5
03
FF
0D
0C
08
0B
09
FD
0D
EF
00
FC
F6
0F
E0
1D
16
27
DB
02
F9
05
16
FD
06
01
09
E2
E5
1B
FE
0A
CC
E3
05
F5
FE
E1
E5
18
ED
E9
09
09
12
E5
15
29
0C
E6
E1
F0
F6
0A
E5
ED
F2
EB
F5
03
06
EB
08
EC
EA
E8
FE
23
F6
F0
D1
F8
0A
20
F3
FA
01
EE
0B
17
12
E7
F1
F2
13
FA
06
F8
04
0F
F8
F8
D9
F2
0A
21
EE
F9
FE
06
DC
FA
0D
F2
07
EF
28
FC
F1
EC
F8
EA
08
FF
EF
F6
07
05
F7
22
F6
0A
EB
FD
ED
FD
08
02
03
07
08
0C
07
E1
00
D7
F9
14
EC
14
15
E5
FC
03
F4
E6
08
09
03
EB
EE
0B
E8
0F
FC
F1
0C
F8
F2
F1
ED
E0
EE
F3
F3
03
EE
08
09
0F
15
FD
17
19
04
12
0D
F5
F9
07
0B
EE
FD
F5
10
E3
13
FB
FB
F2
11
17
E9
02
05
0B
F0
F9
0A
D7
02
F6
EB
0E
EA
C3
F7
FA
EF
FF
EE
2C
1A
0B
F9
06
01
18
F1
E6
EF
15
02
FF
06
22
0A
01
F8
F7
01
0D
12
EE
FA
06
11
E2
04
E9
11
12
F6
00
F8
05
FE
0E
11
EE
1B
F5
E0
E0
10
ED
02
F0
DC
FE
FE
EC
26
EF
EF
2D
E8
0B
0C
FC
E7
EA
00
F8
22
13
05
EC
FD
0B
10
0C
15
0C
0E
EA
19
00
1B
E6
1C
E6
01
22
11
F3
18
05
F5
FB
EB
EB
15
1E
17
E2
FE
16
03
D9
F7
0D
05
0C
F6
F6
16
FF
F2
02
23
0E
3B
0D
10
EE
09
15
0C
00
F8
FD
FE
FF
25
DF
1B
36
F3
05
1D
0C
0F
FF
19
03
F3
00
0D
F4
ED
20
31
F5
1D
F3
1B
19
00
1A
02
FF
01
22
13
2D
05
E8
E8
F7
25
E1
07
F4
0C
12
FC
00
06
DC
E3
FD
F8
F4
31
F9
F2
F1
0D
D8
E4
E7
DD
FA
E4
1A
0F
1F
06
FC
DC
04
13
D4
FF
E2
F7
F9
1A
16
E3
DC
01
07
E6
07
04
EF
FE
F3
02
FF
18
DF
01
FD
0F
FF
0E
EA
33
01
00
0D
10
F0
23
E2
04
1E
F2
0A
F7
0F
EE
EE
0A
37
F0
E8
18
F9
03
1A
FA
00
1E
F4
F3
11
FB
2E
EB
05
F0
0A
3C
03
F7
0D
F0
26
11
E7
1F
E2
FC
02
FA
F7
E5
EB
F4
EC
22
E8
F3
D5
05
DB
14
FE
F4
EB
12
D8
F2
FE
0E
FD
E3
DA
F7
07
E5
E6
EC
FC
1B
E6
E4
F1
F3
D5
0F
0C
01
FC
09
DF
1D
E9
FB
0F
13
E2
01
DC
E7
1E
15
05
0C
20
ED
26
CA
E5
F5
E3
2D
07
C8
1B
D7
F1
08
0E
F2
30
17
FA
14
0C
1E
2F
0E
33
11
E6
0B
EB
05
06
09
E9
E5
1B
0D
DE
15
0C
EC
EE
0B
0E
FE
ED
FE
FD
16
FD
0C
03
CC
F5
04
10
E9
0C
23
E7
EA
E2
E6
18
EF
FF
09
F6
EB
F4
F7
F8
FA
E8
0B
E3
EE
06
FB
EE
0F
F5
00
F7
FF
E9
EC
17
03
F3
03
EE
FC
EB
E3
EB
F3
EE
0A
0B
0C
03
EA
FF
D8
02
FA
13
FC
EC
F2
06
EA
18
16
00
12
20
17
0E
14
00
05
FF
FD
FB
FE
13
01
01
05
F6
F0
06
D9
EE
15
01
ED
17
1B
14
FD
ED
0F
E7
0E
00
FF
1F
0E
F7
FF
11
13
1D
FD
1D
FB
E6
E7
05
03
E3
FB
ED
D9
FF
0A
E3
23
EC
18
0C
F4
04
F7
EF
F3
FF
F2
23
16
FB
04
F5
1A
0B
E3
F9
16
FC
ED
0D
1A
EC
13
15
FA
0A
FA
16
0F
24
EF
09
06
E8
E6
E9
0C
FE
E1
21
28
16
E8
D8
07
E0
FE
10
00
05
DE
E4
DB
15
16
F7
D9
E0
10
11
F5
0F
21
0A
01
20
13
F3
E1
FB
FC
EE
20
E6
0A
04
2D
25
F4
EF
0A
F2
F3
F2
03
EA
12
1A
DE
01
00
08
0D
02
FA
0F
EE
F9
12
E6
EC
03
FE
F8
EB
F6
E6
FD
01
2A
0D
ED
20
21
E5
06
F4
03
22
FA
E3
0B
FF
EC
0E
05
EA
01
1D
0B
E9
FD
01
01
FE
11
0D
1B
02
F2
0E
F4
12
F8
0D
06
E8
13
ED
F7
19
EF
DC
F9
F6
E5
08
F2
0A
F5
0C
02
06
FB
15
FF
02
FA
F9
03
01
FA
F5
E9
02
17
12
11
FA
02
04
05
13
FD
0C
0A
11
07
FB
FB
0F
FB
FD
02
FB
04
FB
FD
F0
F2
13
F6
19
F4
12
00
FD
01
14
F5
F9
0C
F6
F3
F4
1A
00
F7
01
FA
ED
FC
0F
FB
08
17
06
0A
01
FC
FE
FD
0F
FE
02
11
01
F6
FE
19
FD
0F
E6
0C
02
0C
F4
12
04
EE
04
04
FE
F4
F0
FE
0C
E4
01
02
FB
09
FC
09
EF
E8
13
0C
06
02
F7
09
1C
13
04
F5
00
F7
EF
07
FF
FA
03
05
FD
F8
04
FF
F6
EB
F5
FD
F9
17
06
EE
F4
F4
12
FE
F6
10
16
FE
0B
0B
EF
FD
0C
FD
06
F2
15
01
07
F9
04
FA
17
11
1A
02
F5
F2
01
0B
18
E4
FB
04
F4
F6
03
0A
F2
FC
15
05
EB
F4
08
F8
F6
0E
1B
F0
FC
11
FE
EE
FF
04
F0
EF
E8
EE
EA
17
FF
F2
F5
E7
F0
0F
03
0E
0D
0B
0B
1E
F5
04
1D
EC
FE
00
07
FE
FE
0D
05
FA
05
05
ED
F2
F4
06
04
15
0B
01
F9
F5
0E
06
F1
0F
12
0B
27
03
D1
1D
05
EB
02
02
25
12
F0
FA
EF
EE
FE
20
0C
EC
05
E7
02
FD
06
E4
E0
F2
0E
04
E9
0A
01
FC
26
E8
E0
0F
F9
F8
FA
F2
27
09
1C
FD
EB
FC
0E
FF
FB
FD
19
0C
01
F0
F0
F1
0A
F4
E6
05
01
02
F9
EA
F1
00
00
00
0D
04
FA
F5
FD
0D
05
0B
EA
0D
F1
F7
15
10
17
EE
09
01
F2
EF
0D
07
00
0D
14
FD
00
13
E6
F1
00
13
08
E7
F9
1D
FF
F0
FF
10
0B
F5
11
E6
F7
EC
02
11
F5
0E
EB
F2
F8
19
F7
05
F3
10
F6
01
F0
FF
0B
ED
EF
06
F5
F5
01
04
0A
01
FC
FB
F5
04
F6
F9
FD
0B
F6
16
E7
E5
01
F2
F7
F8
0E
F6
02
0F
FA
F0
01
FD
F3
FD
F9
F7
08
EA
0B
FC
E4
E8
FF
F4
0F
11
F8
0B
0A
F9
F0
EC
F4
F1
0B
03
FF
F7
EA
19
EB
F4
FB
F7
17
EE
12
FD
12
FD
F1
15
EB
E1
F9
F7
1F
06
0E
08
03
1A
E8
F6
FF
F9
01
FA
0E
F0
ED
0A
FA
F7
F6
00
0D
0E
08
0C
11
F9
FD
05
EE
DC
09
11
ED
02
FD
F8
D8
14
E5
FC
14
FE
09
15
F4
FF
0B
FB
F1
F4
FB
F1
F9
09
FB
EF
FF
EA
15
FE
E1
F0
F8
0E
EB
07
F1
EE
03
0B
10
EA
0B
F4
F5
00
0F
0E
F2
FB
FB
EC
09
FD
FF
0C
FF
08
18
EC
0F
0B
E9
D8
03
06
03
FB
DD
01
0B
0E
F5
FB
E0
EC
11
12
17
17
FA
10
16
EB
F2
EF
03
12
F8
09
0A
20
38
10
ED
FD
F9
FD
F2
20
16
ED
E0
22
F6
D3
04
EC
FF
10
F8
FA
CE
2E
E3
E3
45
07
0A
ED
1E
28
01
DA
D4
EF
FB
FE
F6
41
18
24
34
FF
F4
07
2F
D3
18
0D
05
13
E3
F9
EC
12
24
DD
04
F2
A1
E8
12
F2
DF
FE
05
ED
E3
06
07
0C
37
E8
11
DF
0A
E8
12
D6
1B
0F
FB
F7
4A
01
ED
1D
10
01
05
F8
0C
F1
DF
FD
EC
EF
15
E7
0D
D5
E4
E2
05
FE
0F
E6
15
06
0D
21
1E
1B
E2
23
EF
EF
C0
D6
EB
F0
11
B0
3B
F0
1C
34
25
EE
D9
04
29
DB
05
1A
12
10
1F
26
D3
F2
DF
2D
0E
22
20
F7
DD
EE
08
FB
12
F7
D0
E8
E6
0A
1E
EE
F3
06
2A
0A
E2
D8
F4
E2
06
F8
F2
D8
1A
F3
06
F2
DA
21
E9
08
41
0C
E5
D4
0C
1C
EF
EB
F9
D6
E9
10
20
05
EB
EA
1B
E5
04
F8
06
16
FC
F2
1F
23
12
05
31
15
13
19
D0
E8
24
13
00
31
19
27
27
FD
DE
DD
12
2F
DE
FB
18
0A
13
15
EF
D5
0A
BB
12
00
47
1B
93
E2
36
EE
00
08
2E
C8
FE
0A
E1
34
E8
1A
25
E2
DA
0E
E8
00
DA
FB
1A
28
F1
01
DC
BF
F2
04
21
17
B7
FA
38
14
0C
DB
0A
0C
29
1D
15
FB
E8
D1
10
0E
27
20
07
DD
0B
FD
09
F6
0D
15
E9
0D
05
E4
FA
24
03
22
01
F3
F4
16
F5
08
02
FC
14
E9
14
FF
F4
02
F2
FF
02
F3
22
17
D9
EF
13
14
12
13
FE
E6
FD
FF
1A
FF
00
15
EE
E8
0B
18
05
24
F2
EF
0B
1D
16
18
04
0F
D8
13
2E
28
FF
12
F5
17
FF
09
F2
F8
ED
18
FA
F1
CF
D5
07
F3
E7
EA
EA
ED
D9
08
E6
01
1C
07
CF
F8
07
F9
15
1F
FC
01
16
17
F9
F0
0A
05
09
14
06
0B
F0
E8
00
E7
03
08
00
19
14
19
F0
FE
0C
0F
04
FC
EF
F1
18
14
EC
04
EA
0D
07
EC
05
FF
06
FB
E4
FA
FA
1A
EA
10
08
EE
0D
F7
FC
15
E7
EF
07
0C
0B
15
02
0B
FD
07
FE
ED
08
F8
F9
F8
1B
F6
E4
00
DE
00
DC
E9
13
EC
FA
FE
E4
F9
0A
09
E6
03
2A
1B
EF
0A
F1
FB
ED
02
E6
0B
F9
F4
EA
03
FD
02
F1
1A
E2
0B
0D
EA
1A
01
F1
FA
0D
F6
21
E5
18
ED
08
E8
06
19
FB
07
14
FC
E9
0E
FF
02
13
F4
F7
0B
F9
F5
F8
E7
FF
0E
15
F8
14
01
02
02
F7
EE
05
F5
F9
EF
F5
0B
10
04
00
EB
01
17
0A
F7
18
01
F6
FF
05
FD
EC
03
F6
E2
25
FF
FB
0B
E3
EC
F1
FD
03
EB
E0
0A
E9
13
05
F5
E4
E8
FC
E5
F2
12
F1
FA
05
F9
E3
E5
02
0F
F4
00
07
0B
EE
01
F4
F6
11
0D
01
1D
0F
FA
1C
FB
06
0E
EC
E2
0B
D7
1A
05
0B
18
FB
FB
F2
FF
03
0E
05
1D
E3
11
02
11
14
0E
F6
EE
0E
08
FF
FD
29
ED
F7
22
E2
D9
FB
FC
09
F4
19
F5
FA
13
0A
DE
04
F4
F2
1D
F6
0E
1F
08
FD
09
01
EF
03
FE
D5
EF
0C
04
0E
0A
FE
08
03
0E
E8
F0
01
0B
02
F9
F2
FB
18
FA
FB
1A
DC
00
03
E3
1A
16
0E
FD
FD
18
F7
04
F3
03
EA
FD
E8
FB
EF
F3
F8
00
EF
F8
08
1A
E9
F3
12
13
1D
24
FB
02
01
0F
0B
04
17
F1
0C
20
F4
F7
1A
0E
EA
F5
EB
04
F0
FA
00
F4
F2
F6
17
03
0C
F5
14
E4
10
08
05
04
02
08
09
14
FA
F6
FE
11
EE
01
1C
FF
FA
F4
E2
FD
0C
0C
F0
FA
F5
0A
FE
F3
01
FD
F4
0D
14
18
EB
FA
FE
F4
F9
0B
F0
F6
F5
12
0F
0A
01
09
02
F5
05
08
F3
D5
06
25
ED
0B
12
F7
13
18
17
F8
FD
01
04
0F
F3
0D
1D
FC
0A
E2
0A
0F
F2
FF
FE
05
0B
02
FD
F0
FD
F7
10
E4
19
FC
FE
F4
04
E1
1B
03
0B
FC
ED
03
02
06
F5
E7
0A
0C
14
01
FE
12
10
01
F9
12
FA
02
1D
F5
1F
E6
15
0A
1F
19
F2
F5
1B
FB
F9
0F
16
20
FA
21
FC
E1
02
FC
19
EE
0C
0C
E6
FD
16
25
F8
F2
E4
06
09
DA
12
DA
FF
12
EF
E3
0E
FF
06
16
0A
19
FF
0D
1C
E9
03
FB
F7
14
F3
F3
FB
EC
14
23
23
E5
E9
00
D8
EB
F6
F1
02
07
11
05
0C
F7
1C
22
07
1E
0B
FA
19
F9
FA
CC
E8
12
08
12
ED
1F
FA
E7
F2
0B
FC
EC
09
03
1D
EB
05
E3
FC
02
05
20
E9
0C
EF
EC
F8
E6
DD
E4
F4
DD
18
F2
02
14
FB
06
09
05
03
EB
07
F8
0C
EB
02
DF
1B
0B
EA
F1
04
14
1F
F6
F9
09
17
EA
E6
F9
02
F7
EE
23
F4
0B
F2
12
F6
0A
DC
E2
E7
F9
0E
0E
E6
02
EB
EA
F8
06
DB
E5
0F
16
03
02
FB
02
F8
F2
0F
E0
F2
1E
DB
DC
0F
EF
FB
DD
FE
09
10
C2
F3
F1
0E
1C
F3
FE
FD
E8
E5
16
15
E9
0A
E3
F6
DE
06
F2
E9
B9
EF
01
EC
EF
0D
02
05
E7
E9
FF
04
E3
F7
F8
DF
DB
0C
F4
02
F9
F3
02
06
E0
FA
D3
0C
13
F9
FB
0A
C7
F1
2E
13
E6
ED
E1
F2
EB
01
1B
04
FE
FB
F6
05
D9
15
FA
03
F5
D4
FC
00
FA
00
FE
08
F5
07
E5
F8
D2
FB
0E
08
E2
00
E2
09
D2
ED
F0
0C
F7
0F
E2
FF
D3
EB
D9
F5
03
0F
F6
FD
15
FB
17
DB
DD
E1
E9
E8
06
FE
F1
F7
0C
E5
EA
20
E5
09
03
FE
EE
06
14
F1
DF
F9
F9
FF
1D
1E
FE
F2
EF
08
06
07
0A
FC
07
FB
D6
14
E2
F0
11
08
09
E7
E5
14
EF
0E
E6
F6
E5
DE
14
FA
02
E9
04
04
1E
1F
F7
F6
13
05
FB
00
05
0D
E7
09
02
08
F7
E9
0C
12
F6
05
0B
05
10
07
03
FA
F7
00
10
DB
F0
14
F6
F5
E1
F3
01
EB
08
D1
10
F8
04
0B
02
22
1C
09
08
27
0A
02
03
27
FC
F1
FB
FE
07
FD
E0
03
28
09
FD
F8
FE
12
1D
F8
1C
E6
FF
E5
11
0F
FA
EA
01
0F
F1
0B
00
F7
0D
F1
FC
EB
FC
E1
15
FF
09
0E
24
DE
FC
00
0F
F3
F8
FC
E7
40
09
14
18
0D
0C
1C
ED
12
EF
09
0B
06
1B
00
E6
EE
24
FC
F5
FF
11
DA
1D
E2
E1
00
EF
13
13
E6
17
02
19
0D
10
F6
FE
1A
12
FC
E7
E3
E6
0A
02
DE
1B
E8
26
12
D9
22
0D
0D
0E
0D
0F
1A
F4
19
13
09
FB
20
02
FF
17
0B
EE
27
F3
22
E8
C3
E2
1F
21
06
FF
D2
E4
E6
1E
1C
11
13
02
12
25
0D
12
F0
02
22
E4
3D
09
02
17
E2
0F
17
08
10
14
000D5660
FFFAED61
00092BEC
FFFFAACA
000EB98E
00012DA1
00012690
000AC404
00080618
FFF55479
FFFA532F
FFE8F07A
000CFB5C
0008CA8E
0007BDFF
0008FAFE
0007DC7F
FFFD12AA
00079BC4
000B0E07
FFF6A9DD
00065F2B
FFF59E7B
FFFD825C
000CE654
00084F03
000CBA86
0003B252
000C8A9C
00095915
FFFEBC81
00068071
FFFAD74D
FFFE9470
000A2FEE
FFFCB791
FFFC9999
FFF81AB6
FFFDC675
00142962
FFFAF1F9
000B2161
0004E1A2
0019C144
FFFF16E4
FFFF8C31
0003DB7A
000CAE47
000B47D8
00093D2A
FFFF9E57
0000CA5B
FFEFF7BC
000768B8
000901D7
FFFB335B
0004C03C
FFFF2A52
00079B6A
FFFEADA7
0001BD71
FFFCAC06
000DF855
FFFD7991
000000EE
0
13
2F
29
F1
3D
10
F5
EE
FC
EA
01
FB
0E
E2
F2
16
26
0C
DF
F0
E5
28
25
D0
D9
03
14
D1
09
27
33
DD
F4
CD
20
D4
E5
F8
D5
07
F7
E6
D1
12
10
EB
18
EB
16
29
F1
DF
E0
D0
FB
CA
FC
30
E9
0F
C3
E8
DF
0A
E5
E6
DA
EF
03
EB
15
EB
FD
00
EC
13
E5
D7
05
E5
0F
E8
E7
E2
07
22
F3
00
18
F5
F6
1A
14
DF
DB
12
D4
12
12
0C
04
E5
09
11
FE
0A
05
FB
E1
E7
D5
02
0E
DD
20
1E
F4
0E
18
0D
F0
CE
EE
19
E4
FC
F0
0C
41
BE
23
48
D9
C8
F7
3C
2F
FD
05
0F
0E
10
EA
13
DF
D4
11
EA
2E
34
05
02
DD
00
1D
CE
03
28
FF
13
FB
2B
3C
DE
DB
FE
0F
FB
F5
0F
F7
0B
D1
02
2D
DB
D9
2B
09
FC
D7
FF
D5
ED
13
12
F8
09
E8
01
CE
BE
DB
19
03
00
3C
DE
03
EF
EC
ED
F7
FB
0B
2D
0C
D8
21
03
D9
F4
2E
E2
FC
20
EE
1B
E2
C9
1A
EA
05
E4
E9
F9
0B
05
CB
D4
16
06
0A
E0
14
D7
F5
21
F5
1D
1C
FA
E1
2C
03
F1
26
D6
0E
2D
E1
DC
0E
F1
D8
19
DC
FD
E4
22
26
CD
0C
E0
21
E4
11
F7
08
1F
F3
F3
22
20
EA
E9
03
FF
41
E6
08
03
D4
D5
EB
29
FE
DB
17
FB
FA
D9
F6
DB
27
D2
F7
27
F9
E2
F6
24
0E
2C
1C
1D
F3
E5
F9
EC
F2
E2
E8
09
28
14
15
FA
FB
0F
EB
28
F9
13
E9
30
F2
27
28
CF
DA
1E
F9
14
2D
F6
E8
3B
DA
00
F9
DD
AF
37
DC
FE
1C
F7
39
C8
1C
C2
AD
FF
FA
E0
14
F5
15
EA
34
2F
0F
1A
1B
10
2B
19
2A
31
D3
0C
DB
35
DE
07
E3
C8
CF
FF
FC
35
22
D1
CB
05
E0
ED
BC
80
D7
2C
BA
30
43
ED
0F
20
0C
04
E4
0A
4C
26
FB
36
D8
DF
27
CB
D1
D9
2B
D3
BC
EA
D9
15
42
C3
28
D4
25
23
CA
09
D6
0B
1A
F0
2C
15
E4
0F
1C
D4
CE
D3
B8
08
EA
45
08
29
2A
34
E2
EA
F6
00
13
15
D7
2D
E6
2F
ED
F6
C7
E1
3B
E8
D7
36
0D
02
D6
15
EC
11
2A
EC
FE
F8
02
15
10
F5
12
09
CA
EF
21
1D
E8
33
EF
15
21
10
F0
C3
FC
1E
07
0C
ED
3A
D7
0A
34
F3
24
18
0C
CC
2A
12
DB
00
DB
2A
D8
0D
F4
05
E8
19
2F
04
1B
E3
06
27
06
EF
1F
0B
15
CC
29
08
F5
45
24
29
0A
17
FC
D1
20
01
0C
E6
4A
2D
CE
0E
33
15
25
EB
FD
FC
F2
D5
DA
DF
FF
0C
F8
FD
34
34
0E
38
34
22
EF
0E
12
EE
0E
2A
E1
34
35
D6
0E
01
2E
12
F3
32
1F
DA
BF
D2
EE
DF
F9
10
05
F1
F0
E9
09
FC
C1
E9
20
15
2A
EF
E0
12
1A
FC
00
CF
E3
05
00
FD
E5
C5
DF
F4
DA
2A
D5
13
D5
30
E3
13
E2
FF
EE
FF
EA
D9
F7
20
DD
F8
18
05
04
C1
FE
E9
FA
D8
E5
FC
DD
00
E1
E1
23
FE
27
E4
EE
24
F0
F4
EC
00
2E
F5
20
02
01
1D
25
1E
13
F8
E1
EA
23
F6
29
03
00
EC
2C
F6
0A
02
F5
E1
09
EF
DC
0B
07
E2
0D
0E
F7
24
02
ED
0A
E3
0F
E8
14
F1
F1
FD
1D
14
E8
DF
37
2C
EE
20
EF
D2
CD
E1
33
19
02
E2
11
CF
CC
2C
F2
DB
0A
0F
E0
D8
E5
E7
2B
33
C8
0C
02
D4
2A
BD
0C
D7
1F
EB
E5
CE
DA
1B
CB
CD
07
FF
E1
DC
EE
F1
E8
09
F0
E0
EC
EC
1C
01
03
29
EA
01
C3
20
1A
D6
2C
21
CB
D0
CE
2A
17
DA
37
11
E9
10
FB
02
1D
F2
1D
09
11
F5
DE
F0
FA
1D
1B
1B
E3
13
3B
E4
E7
26
D4
00
17
49
FF
0D
24
F1
00
F2
08
15
2F
20
12
CC
F5
DD
1D
09
DF
14
2F
D7
DB
09
24
12
CF
14
1E
36
BE
ED
F4
1F
CC
0E
EA
D0
1B
E7
37
02
17
1F
DE
21
01
FE
E9
C8
F8
1E
09
F0
1F
10
2B
FF
D3
B6
02
0C
0D
0B
F3
BF
F2
25
EE
21
FB
D9
21
34
D9
01
0D
2A
28
07
10
09
2E
12
F9
EA
11
3A
C3
1F
2E
EE
FC
D8
EE
E2
D0
14
EE
31
0C
FB
DA
31
D1
10
DF
F2
23
12
F5
3B
16
33
10
F5
FF
26
E6
07
08
F7
53
3A
E2
15
E2
0C
FE
D6
E2
01
E9
1D
07
07
EC
FA
D8
38
E5
1F
CB
FE
F8
DB
D9
D7
F0
46
E9
12
E6
EA
E7
19
F9
25
0F
2D
0A
F5
2C
08
E8
D0
F5
42
FC
DF
1A
E1
21
35
F1
D4
06
05
19
D2
FF
D3
CC
BF
D4
D7
01
27
01
48
11
38
28
1D
06
E3
0E
18
37
23
D4
2F
C1
E7
FE
3B
11
FB
05
0F
DC
D6
38
DD
E7
31
2A
FF
FF
2D
DC
20
EA
4A
17
C7
FE
C3
13
0D
D8
CD
CA
D1
D8
0C
24
17
D8
D3
F7
EE
D8
39
CA
12
2D
D4
BE
DE
2E
FE
20
D2
4F
24
E8
D4
15
22
0D
11
22
C4
0C
C7
E3
CD
DA
18
EE
C8
27
E2
02
E0
27
0C
D0
33
45
D5
1D
C4
E4
F8
17
DA
1F
30
11
15
D5
10
12
F5
DE
29
E9
21
D8
06
DD
02
E0
CE
03
EB
F5
08
18
1A
FE
19
D8
1D
AE
03
19
CE
00
15
07
07
31
E4
0F
1D
EB
15
F1
09
16
1A
DF
F3
08
D9
DF
14
11
ED
16
FA
DA
F6
FF
3F
09
EE
06
37
24
1F
E5
F4
1B
D5
D1
0C
D3
FB
DE
0F
20
DB
1E
0C
FF
CD
BE
E1
CA
2F
F2
D1
17
CE
14
01
22
00
2B
26
03
F4
2B
30
3A
16
00
EF
F1
13
01
C8
14
D6
E7
0C
14
01
F1
DC
DD
0F
DC
00
F8
F4
DE
28
E0
E8
CE
F3
35
C3
EB
2D
E6
D1
F5
1D
CB
04
28
D3
46
05
FD
B9
BF
F3
3B
D6
CE
F8
28
39
23
02
FC
2D
07
E7
C0
1D
EC
E8
D1
35
1D
41
D4
BD
D3
4B
22
09
24
D6
DE
B3
DE
F1
FF
1E
DE
32
D3
CE
3B
EC
FC
DF
F7
DD
20
33
1F
F8
01
35
F9
2B
0A
F7
19
05
FD
21
26
E6
0B
EA
E8
E8
D9
CC
F1
00
FB
DC
D7
E8
F8
0D
FA
0A
0C
17
E9
EF
FF
DC
F8
F9
E7
32
2D
0E
1E
26
17
EE
22
25
04
D7
36
E3
DE
F8
05
CA
06
25
23
EC
1E
CD
FA
0E
28
19
22
FE
FF
DD
EA
DB
DA
2B
D3
19
E1
F9
1C
0D
F9
FB
1D
03
EB
00
12
0D
1F
1E
0F
FF
DC
17
14
D7
FC
F6
FD
FA
20
D0
CE
25
EF
D5
EF
E6
DC
28
DF
1A
31
F8
F3
2B
F0
DC
24
00
30
ED
1D
F9
19
E4
0C
E7
01
DE
D4
16
17
13
E0
F0
E2
0E
ED
FC
22
12
18
EB
E9
FE
14
01
FA
F9
16
14
E7
E5
E8
E7
FD
F3
E1
EA
1B
23
F7
25
FA
E9
F6
04
E0
F9
F6
13
FA
1B
1D
FE
FF
EC
16
F0
19
0B
14
15
F1
14
E9
24
26
FB
0A
FF
0C
0A
CE
E9
D9
E8
11
DC
FE
1E
17
E1
EC
E8
DA
1F
E8
01
08
25
D1
1A
FC
0A
44
0C
FD
C3
0B
EA
E4
29
D3
0A
0E
17
CC
27
13
F7
08
FF
C0
D0
C2
16
EE
2D
EC
DA
DA
F2
F6
1B
09
15
21
F6
07
19
18
E7
CB
D9
E3
32
0B
AA
00
E6
2A
30
0B
30
CB
10
FD
AF
E1
E6
F6
F2
03
ED
BA
F7
04
EF
D9
13
B8
1F
19
E7
24
FE
D6
BC
B6
44
EC
28
01
2B
26
27
35
30
F5
31
F4
28
E6
DD
DF
DD
33
15
3E
CB
F2
C0
30
16
E4
31
37
04
26
A9
E5
25
FE
F7
FB
EB
E1
F4
D5
BB
E0
DC
3B
C5
29
2E
00
DE
E1
2D
B8
00
E6
01
C5
05
20
BD
E7
34
C7
21
DB
0B
C7
02
DC
4D
E0
1C
ED
3A
E8
14
FF
1A
28
C4
1F
DC
F8
B4
E2
43
AD
22
D4
E9
1C
16
F8
CA
1D
D3
D7
0E
D6
1C
2A
12
DB
14
1A
37
01
CC
F9
13
00
C1
F4
1C
EB
3A
E0
07
00
23
F0
EA
33
09
C1
04
41
DD
F4
C5
08
09
08
25
17
35
E8
D6
F3
28
F0
1E
D0
06
07
D7
12
28
C9
13
D6
26
02
DF
00
E2
24
E0
15
D0
DD
17
06
DD
12
F6
17
0B
D9
1A
DC
11
14
1D
0F
E9
25
D8
1E
FF
2E
E2
08
F2
E5
06
F8
E2
E4
F9
20
05
18
19
18
0B
D8
F8
E7
F3
F4
F3
DB
26
D5
E2
D9
E2
FF
E0
DA
EA
11
E1
1D
EF
E5
BF
38
F5
EF
36
D2
F5
EC
F5
E3
DC
DC
11
E1
11
01
BF
09
0C
C1
DA
1C
F7
EC
05
EA
DD
03
E2
E2
20
EE
E9
FB
EE
F8
1C
CC
18
2F
35
E1
2B
31
2E
1E
CC
33
F0
0F
AE
1F
36
B8
20
21
C5
2F
A8
26
39
FC
1B
24
0F
10
F4
DF
C6
03
1C
28
E2
D8
1F
FC
F0
05
E3
17
DD
FD
06
E5
E4
02
07
0D
FD
F2
15
EE
22
0D
DA
1E
21
17
14
DA
24
25
FE
CC
1B
DE
2E
D9
17
26
01
0E
14
1F
2C
F2
EE
E5
20
20
14
13
2E
FE
F0
E7
F9
DC
F4
11
30
02
48
06
1C
12
E6
C7
E8
E9
E9
2B
FF
38
E9
37
22
EC
F0
0E
D0
1B
E4
33
1C
D5
36
15
09
D3
D3
27
F0
1A
FC
16
18
12
35
FC
37
33
D5
E6
12
D6
0C
03
12
05
F0
DD
E1
2F
F2
11
F0
F5
12
F2
29
FE
DD
28
E0
D5
CA
20
DE
2F
E2
00
18
06
EA
2A
EA
21
26
CF
26
EF
F0
EA
2A
D9
2C
D8
22
FF
EB
0A
E7
C3
19
0A
D7
DC
0C
1A
D2
2E
12
C7
F8
09
DF
ED
39
1F
DB
FD
E0
19
06
F3
E5
07
23
14
1D
27
0B
FB
07
0007DBE8
00098144
0000D0C5
0004E2DD
000266D9
FFFCF08F
00075AAA
FFFB2128
FFEE309C
000CCE43
0001FE5D
000F4EC5
FFF92D64
FFFC1320
0001989D
FFF94C80
00098267
0004336B
0002A6A3
00094F35
FFFF89CF
FFFFF30E
0001BC12
0006DA4A
00067135
0008ABF1
00029D00
0009776E
00074718
FFF9F83B
FFF6FBB6
0002C6AE
00000172
0
FF
12
DF
FF
36
E0
EB
3E
F0
CD
CD
01
DF
41
FE
49
1A
E8
FF
E6
DA
F2
04
FC
4D
08
28
11
20
EC
E6
F1
EB
17
08
0E
03
FB
0C
1A
16
E9
CC
E9
CC
23
21
1E
20
0E
15
F4
DD
DE
E2
FF
FB
20
E9
F4
15
0E
EB
F2
D1
DD
09
F7
EF
EB
FB
14
13
26
E1
20
DC
1A
04
17
23
F5
10
2B
06
11
E3
D9
09
21
EC
33
29
F9
BF
1F
EF
EA
EB
3F
E9
E0
EB
ED
27
06
18
CA
E1
03
3C
FC
F5
1F
2F
00
E2
E4
3F
C7
FD
08
E0
0D
13
0E
11
F2
14
FD
2A
FC
26
D7
FE
06
D1
09
E4
C8
FF
D2
2F
40
CB
2B
EB
0D
18
ED
DE
F6
F3
1C
F9
FC
E7
EB
1B
B9
F3
CE
E2
24
0A
0E
2F
D6
F9
E5
03
F9
DA
09
1A
06
18
EA
CE
F7
F2
F3
1D
08
D7
D7
E3
F5
0A
EA
DF
F0
09
10
E9
38
3F
F5
0B
F3
2A
2B
F1
BA
32
10
0D
DA
19
F1
5B
08
1A
11
43
13
14
15
E8
F9
E6
FB
C8
19
07
0A
00
F3
5D
BF
0B
0D
22
2C
DA
1F
53
BE
31
2E
0B
02
07
BB
ED
E0
01
D5
C4
EC
2A
F6
D9
2B
F0
C6
44
C6
F9
16
36
FF
1D
06
3C
0D
FC
F8
42
09
37
06
D2
04
E5
D6
08
E8
23
FF
98
C2
11
36
FD
EE
10
C8
FC
08
F5
DC
27
02
C7
08
E6
06
0C
DF
E5
1C
18
D1
E5
1E
C6
07
2B
F3
0C
00
0F
EE
F8
00
28
F5
1A
E2
EE
DA
E0
F9
18
0F
F2
F9
FC
12
E8
00
29
03
0F
14
FA
F3
06
2E
F1
0D
0C
D4
E7
15
03
07
FD
FE
08
0E
CF
18
09
2B
24
07
00
0C
10
0E
20
FC
DA
21
F1
D3
04
FA
EA
04
E9
D5
E6
00
2F
F8
39
2E
1E
D9
E3
24
CE
0D
37
EB
E5
E8
F0
2A
E6
F1
D4
03
C6
0E
29
12
1C
06
EC
16
DF
FE
FA
04
D8
21
08
CA
0B
05
F4
FB
EE
E3
CB
FD
DD
1B
09
0A
B2
11
FF
16
D5
30
10
DB
F4
12
36
57
3F
1C
31
F4
1D
D9
F1
F2
E0
14
0B
E1
C6
EA
DD
E9
F3
02
E0
0C
F0
00
09
FF
0E
E6
D0
09
27
0D
47
F9
19
3E
09
1E
38
EC
01
E6
20
E6
ED
EB
FA
E9
DF
E7
E3
F9
F3
08
BA
E2
14
04
EC
DB
DB
DC
2F
0D
FD
1C
DC
06
06
E2
08
24
D5
FA
39
D7
DE
E7
DC
F0
E5
1F
06
EC
3D
1A
BC
DA
E3
14
EE
F3
2C
F0
08
1E
D7
4F
E5
E8
00
E5
22
02
00
FE
13
11
FB
D1
E7
E3
E2
05
14
34
35
19
C4
24
10
10
CB
28
D5
F3
F6
0D
21
3D
19
E8
E8
F0
1A
29
38
FC
F1
FA
16
0F
EB
3C
E7
EC
0E
F5
D9
E1
F6
D9
EA
0B
FE
18
0A
1D
F8
0B
F9
1A
10
37
D2
EB
F9
D8
C0
1E
17
2C
FD
DD
DE
2F
11
0C
1C
D7
DB
14
F8
FE
D2
F0
D8
02
F0
DB
20
F6
E9
05
19
F8
DE
14
FC
F4
08
0D
01
E7
F8
04
F2
EA
DB
F1
E5
0D
FE
0A
CD
28
2C
EF
E8
FC
FB
0C
23
E8
DC
19
CE
F9
16
09
16
DF
EF
E7
1F
10
20
1A
FD
16
C8
FB
E4
0A
D8
CF
2E
FB
11
1A
EE
0C
1D
22
28
E6
F3
1E
D6
1E
01
F6
0B
CC
C8
23
D7
FE
E1
FD
E1
F0
07
1C
EF
F1
F0
1D
07
3A
E6
07
F4
16
E6
DB
08
22
ED
01
DB
2D
D7
15
D8
F2
15
1E
F3
E4
DE
29
02
0E
17
0C
1F
E4
1C
D8
0C
F7
F4
ED
F4
01
CA
16
C6
E6
F5
D9
D3
F9
17
F8
D1
FD
03
DB
14
D4
F1
12
1D
ED
09
02
FF
F9
04
EB
FF
0D
EC
12
E5
ED
F0
DD
F6
DC
06
E0
11
20
31
F1
12
D8
EA
13
CE
E6
ED
09
E3
24
00
29
2A
1C
02
0A
08
11
13
38
D7
17
E0
19
29
07
F2
E4
E9
FD
E9
20
D0
F2
18
14
ED
D8
01
0B
CB
0B
DE
2A
FB
F4
E7
DB
10
E2
3A
F3
F0
13
CD
EB
16
01
01
10
DD
12
17
18
1B
D3
F0
EE
0D
13
09
1C
F4
16
03
11
01
F5
F0
FD
F2
04
10
F6
19
F8
11
D6
CD
00
F8
18
03
07
15
08
0C
16
26
02
16
DA
EB
E7
F6
1C
15
D8
DB
DE
F5
E7
EB
EB
FD
EB
F0
01
EC
13
FC
02
DA
15
FC
E6
E4
21
D2
E8
1C
07
1C
DD
1A
19
F7
10
CD
DB
CF
01
21
0E
F5
16
F0
E4
E2
DB
EF
E6
07
FD
D9
04
EC
D6
F3
FF
0F
EC
1D
1F
E5
DA
07
F9
F5
F1
F1
0B
17
27
E7
20
F2
0E
25
00
FA
D5
06
FD
D2
18
27
11
FE
01
F4
F9
E9
00
05
08
F3
0B
EE
28
17
13
DA
0D
CA
12
EA
E3
E1
ED
17
0F
FE
E8
23
1F
F6
04
FA
1F
E6
0B
FC
04
F8
DD
03
DE
15
FA
08
15
03
FD
E6
F0
EF
F9
07
10
F4
F6
DF
18
E3
FD
08
0B
FD
F9
F1
12
13
F3
16
12
07
F5
1C
1A
08
DB
E6
19
FA
05
D7
0E
17
E6
FE
14
D7
F0
11
FC
26
1D
11
F4
D1
E1
F0
E5
13
E2
1A
1A
EF
1D
2B
03
FD
02
12
09
E6
09
04
09
F7
DC
20
0D
F0
06
10
FB
1B
26
0D
EF
1A
01
02
00
E1
D3
FE
23
FB
F9
33
E3
05
F5
16
FF
E4
E2
D5
07
E4
C9
2A
FF
E3
FF
E5
03
1F
E1
F9
FE
15
04
1F
09
D8
D9
11
07
01
E0
0C
E3
03
E6
15
E5
1B
CE
22
D2
D6
22
17
FF
FB
F6
05
14
F2
E8
F2
EC
F1
22
03
0F
F5
DD
D8
07
FB
E6
F5
ED
F5
F6
17
EB
F9
18
0D
E2
CD
DB
CF
FD
EB
FC
EF
19
09
E3
DB
E6
E0
FB
D2
02
E0
DB
14
07
BF
D9
F3
F3
0D
0A
E4
EA
29
0E
EE
D5
FC
CB
09
FB
ED
09
0A
E6
E6
F3
FB
07
E0
EF
FA
DE
05
EE
05
04
D5
02
D8
07
14
D9
0A
CB
F4
E9
15
1F
17
F1
FB
02
E9
D9
DC
16
33
DD
E5
E7
0C
18
FA
F8
26
FD
0C
FD
DC
11
DB
E1
39
07
F0
06
EA
25
FF
FD
04
E2
EE
13
A5
0F
DF
07
25
09
D3
F7
22
E7
14
3D
22
E3
0A
FF
16
F3
F0
0E
D9
F4
E6
F9
ED
25
FC
08
FC
D4
EA
FF
D5
F7
12
F4
D3
EB
15
EB
02
1B
D0
EA
0B
E3
1E
F1
CC
E8
E9
E6
06
0C
E2
21
ED
03
18
CF
E5
22
04
D7
0A
C6
F3
E9
EF
C3
03
0E
28
04
09
F4
39
DA
F8
D9
FE
E4
FB
BD
2A
07
F8
18
0C
18
12
32
ED
0F
E2
27
F0
DE
07
F3
33
16
D0
E5
DE
1E
23
3E
2B
EF
15
0B
F9
05
2E
02
E4
01
22
18
20
12
16
3D
FF
EC
EA
F7
DF
21
D8
0E
E3
0E
F3
D8
10
F5
EB
EE
0D
E3
29
DA
09
23
F1
0A
0C
04
FA
F9
0F
00
20
F4
EF
18
EA
C5
EC
E8
1A
E7
E5
F1
08
1D
2A
CE
20
01
09
CC
11
B7
E8
EA
F5
BB
FB
2A
EB
EE
CD
DA
21
05
E0
E8
29
E4
14
06
18
1E
0C
0F
01
0F
C5
FF
F8
18
00
19
29
BA
45
FD
22
CA
E7
37
D0
0A
E1
33
FD
D2
00
EC
E6
0B
25
E2
10
08
D3
F6
DD
E9
FA
EA
2E
F1
2C
CB
26
CF
20
00
00
E1
28
2C
F2
17
FC
10
DF
CA
D9
1F
0A
07
19
07
D9
13
EB
2A
16
CB
DD
FC
FF
04
D5
FF
DD
CB
5A
F7
25
0D
17
09
F6
D3
D6
1C
25
09
DB
FA
08
EE
CA
02
2B
17
22
D9
0B
05
E9
2D
F4
2D
DF
2B
EC
F7
60
10
3F
D3
05
DD
08
E5
EE
00
2C
F5
22
21
06
CE
11
01
F8
0D
22
E5
CB
D8
02
FC
0A
2E
10
20
12
EF
0D
17
14
C8
36
FC
F6
28
E2
13
CF
AD
D1
0F
20
18
D0
0F
2A
06
1B
08
21
08
05
FF
10
1F
D0
CB
EE
2F
41
F4
FF
DF
1D
DD
05
14
C0
19
07
FB
FF
2E
FE
0A
BC
CC
EC
FF
D4
1B
EA
D8
0E
FA
F2
13
0F
0E
E7
E8
49
07
F4
E5
38
DC
D1
1F
F3
21
EC
C0
E4
23
16
06
CD
00
F1
CA
F1
DE
F0
EC
F2
1C
23
4D
D6
AB
07
EA
50
FB
EE
BB
FD
11
C2
FA
1C
E8
FA
E6
EE
00
D7
1E
E6
13
01
0F
DC
15
C4
20
FA
E7
21
E9
16
DC
F2
00
FA
DF
DB
03
09
EC
35
14
FE
F9
C0
10
FD
D6
DD
25
E3
0C
EC
D0
06
FD
11
F6
00
0A
F1
23
F8
E0
FE
DE
25
13
01
FC
FB
D4
02
E1
F7
0D
FF
F8
01
F7
09
1E
FE
05
27
28
06
2E
ED
CF
EB
E6
FB
E8
D3
0C
E9
D4
16
DB
F1
0B
02
E0
0C
15
07
08
D1
E4
0B
0A
25
27
25
F2
E0
FB
1F
E8
06
E2
14
E5
DE
EA
E0
FE
F5
03
FB
DF
17
0B
2B
0C
2D
1A
00
D9
12
1B
13
DC
FE
09
06
E3
25
E2
F4
D4
24
F3
FB
33
1A
03
EA
10
E5
FE
34
22
0A
C3
FE
F6
FC
D8
1A
F9
E7
DF
0C
FE
F3
26
D2
DC
EA
3A
39
E6
1D
E5
F7
14
ED
FB
C5
0F
11
21
EC
08
10
19
EA
D3
F5
CE
01
0A
FA
E1
09
F6
E0
F6
13
D4
0B
11
FF
23
15
E6
F2
DA
0B
FC
2B
1A
17
EE
E3
0B
30
09
01
0F
18
E7
E2
22
E9
F3
DB
DE
06
2B
26
EA
2B
37
3F
F3
E4
0D
EA
10
D5
27
E0
F9
16
EF
25
2D
F7
12
E7
DE
1B
1E
E6
1F
C6
F2
EE
C1
EB
14
E8
03
F3
0B
17
EC
F4
DA
0E
FF
EE
D5
D7
0C
2A
13
F0
FB
0B
16
09
01
34
DD
01
F0
2D
ED
14
01
FF
03
E3
05
0C
0C
0C
F8
07
27
FE
D4
0C
E9
FD
E6
E6
EF
F2
06
EC
02
DC
27
09
11
34
DC
03
12
1F
DC
E2
15
D1
0C
2D
08
0D
1C
1A
25
0F
DE
1C
31
03
0A
19
12
F9
36
1E
0F
D9
25
F2
12
FA
DC
32
16
14
07
E8
E5
F9
34
13
E9
00
1A
0C
37
F8
11
D9
09
18
10
18
EF
1A
3A
09
F0
2A
2D
E2
EA
06
FF
03
FE
F9
14
B7
0F
FE
F3
2D
07
EF
F8
0B
01
0B
05
DF
F6
2E
0F
E1
EE
E5
EE
15
E5
E1
E8
F6
E5
F5
DE
FF
2A
E8
10
DC
1B
03
29
FD
0B
0E
0A
D4
23
26
FE
01
F7
3E
1C
13
21
16
18
0F
E9
15
1B
FC
1A
EE
FA
0F
EF
0C
5D
C4
EB
2A
19
14
EE
00
F3
17
0C
DB
05
F1
06
24
E3
12
FB
36
F8
2B
E7
31
FD
20
3B
D8
D9
F5
2B
E0
D2
F4
12
18
09
07
08
17
F5
E7
16
2F
F5
40
CE
24
F1
14
03
EE
E7
1D
F2
0A
DC
19
FD
FE
05
E5
04
F2
F5
20
3B
11
F1
27
18
FB
15
07
DC
02
01
05
11
00
0E
F8
3B
DA
F8
15
F9
07
F1
2E
06
FD
F4
FC
09
F2
ED
DC
00
F5
16
0D
12
EF
14
FF
19
14
04
11
0B
DA
1D
EA
05
18
EE
2D
09
0A
0E
22
FD
07
FE
CA
DE
EC
DF
DB
E7
E7
FE
E1
F0
1B
E4
F3
08
22
EA
05
1F
18
F1
17
17
EF
10
05
20
F2
CE
2E
EE
EB
10
CD
05
F7
D3
02
2C
DC
12
EC
02
FB
06
D3
B6
26
12
31
0F
06
1B
14
0D
FB
23
25
ED
FB
E3
E6
D3
EE
1A
D2
31
FB
1C
CD
10
CC
F4
F0
27
F8
E6
EF
01
0C
22
1C
FE
3E
24
0E
1A
E4
22
04
F2
22
C3
E7
0F
E5
02
EC
1D
1C
04
E4
2B
DF
E5
FD
EA
EA
0D
FA
0D
E0
27
0F
02
F7
01
0F
33
04
F2
F6
04
D3
F0
07
18
0A
F5
DE
2F
22
31
E2
D7
E0
DC
D7
F3
FB
EE
E1
E9
23
45
1C
1D
EA
03
0B
F0
01
0B
44
38
19
F3
11
DA
F3
15
EB
17
3B
FF
29
34
D7
3F
09
27
FE
23
F1
EE
F7
3B
13
E1
06
F4
FA
0B
1C
02
1F
DE
05
EA
16
0F
02
C1
EF
FB
31
2A
24
14
E6
FB
DF
EA
F4
1E
2D
03
30
15
01
EF
2C
23
E1
03
16
DF
FF
09
10
20
0C
FA
F3
0B
17
F9
17
1C
EA
28
E4
F3
EF
EF
2E
DD
00
18
05
FD
E9
EC
0C
02
1E
19
2C
1C
DE
F3
13
2F
18
13
FB
D4
1C
17
4A
2A
F9
FB
F7
27
C9
FF
EA
D4
ED
0C
F3
FA
A3
0B
22
02
15
D3
4B
12
03
FF
FA
06
D3
01
02
F4
1A
0B
10
1F
15
06
EC
FF
D3
01
F4
19
0D
F1
E1
45
E6
FE
DA
21
15
0E
13
E4
EA
12
1D
11
E2
F0
07
E0
18
1F
12
1B
0D
09
E4
FD
1B
FE
E5
12
E0
1F
06
10
DE
1B
1C
FA
03
E9
F0
02
E3
26
0A
0E
F2
EB
FD
F7
13
2A
11
F5
1D
EB
F4
EC
1C
E5
0F
0C
02
05
0B
F2
F4
E4
16
0B
2D
F8
F4
E0
E3
0D
02
DD
EA
0E
D7
FC
FD
DF
ED
1F
17
02
10
FA
FE
EE
EA
E9
ED
E0
0C
24
FA
0C
07
1B
EE
0E
DA
1A
F2
24
EE
DF
EC
16
F3
20
FF
F4
17
0E
00
05
F0
EB
06
01
0A
0F
E2
EC
0B
0F
09
12
02
1A
23
03
F9
FF
D3
0E
EB
CE
E9
FB
E7
08
E6
2C
14
0F
05
E3
E2
E8
07
E1
08
05
DD
FF
33
04
29
09
0F
F3
21
02
D2
E8
02
FD
17
EF
12
23
08
1A
F1
E6
E2
F0
E8
0C
32
07
FD
F7
EC
EF
2B
DD
F8
08
08
1E
05
ED
FF
11
DE
0C
DD
04
0D
12
F1
F5
24
03
E3
0B
F3
0E
FC
14
1D
E9
FD
E3
E3
14
DA
DC
E2
1D
1F
F2
FF
1B
ED
28
CB
05
E1
E7
C4
E3
FA
09
F9
0E
E9
14
ED
09
F6
EB
F1
ED
04
E9
F3
E0
E4
DE
0C
0A
2C
E8
13
36
0E
FF
E5
E9
0C
05
EA
CD
D5
F2
EA
16
16
FC
0B
05
FC
15
DC
1B
FC
FA
F7
07
0F
EE
09
17
01
30
22
11
E3
15
FB
16
E9
2F
F0
E3
CB
14
E4
16
F6
08
EB
15
08
2C
08
1A
D4
0C
CB
FD
DA
06
0E
F2
0B
26
EA
E5
1A
00
F2
17
07
17
FE
E2
E4
EE
E3
09
FF
11
F8
11
F7
06
17
22
CF
02
DD
E7
25
FD
0D
0A
09
FA
25
11
EA
03
17
18
E1
02
1D
00
17
05
E7
EC
17
15
E3
F0
FA
FE
12
01
F1
02
F1
FF
15
D6
D7
32
00
FE
28
0A
FA
F9
16
CA
F1
04
E9
D5
02
F6
FA
0B
04
F4
E8
24
F9
01
01
FA
F5
0A
FF
DF
15
FE
EE
F9
07
E2
E8
08
09
14
00
DE
00
FF
1F
EA
EC
EF
13
26
DF
08
EC
10
FE
0B
FA
1B
F1
DA
12
F0
F0
EF
F8
F6
1E
30
06
E0
DB
E4
F5
F1
0D
1A
E7
E4
D6
E6
E9
26
02
E8
E2
F3
08
FF
FA
27
FA
ED
CC
DD
10
E9
D1
17
F1
0A
20
16
F3
F9
01
F2
DB
12
0C
05
F7
16
E7
08
F7
12
02
20
EE
D2
15
01
08
F1
01
F0
0D
14
17
FD
28
1E
16
E2
F0
FF
E1
CE
07
07
FB
E7
D5
0C
0B
39
DD
18
09
DF
0D
E5
F3
1B
F6
EA
0D
E3
DC
E1
22
DE
33
15
F1
18
15
28
DA
07
02
15
00
02
CD
E9
01
E6
17
F4
FC
F4
1D
09
F4
D4
FA
D2
05
21
F8
FC
00
EB
CC
FA
16
15
F0
F0
02
FA
EA
DE
0A
FC
FF
13
0C
FA
12
09
10
FB
22
09
09
FF
1B
0F
D6
DB
04
C0
F0
04
1F
F5
2E
08
0A
E7
19
E8
E1
EA
EA
D7
EC
19
F5
08
1B
EE
EE
F2
21
37
F4
DF
FC
FF
24
04
EE
F0
11
09
0C
14
25
DE
17
F2
19
16
D7
F4
FA
1B
DA
1E
01
E5
11
12
17
CE
F6
EB
FE
FD
0E
EC
01
14
08
13
D6
FB
CE
BC
F1
DB
F2
D1
F9
D4
F2
FD
F3
D8
F1
FA
32
D7
18
14
0F
0B
08
F6
0C
F1
ED
10
F5
F3
EB
EE
0A
F8
CE
E9
2A
08
16
D3
EE
DF
F5
0A
E6
D1
00
11
23
17
1F
29
15
EB
FD
EE
FB
D7
10
F9
00
F2
05
D5
F7
FC
E9
26
05
14
20
D8
35
EC
E3
2F
02
08
F6
D7
1A
FD
CA
13
20
14
F6
E1
F8
CF
F2
FB
15
23
22
33
0C
EE
E1
D1
E5
E0
D4
11
C2
0D
ED
0A
D8
F9
20
EC
16
D0
17
27
19
00
F3
D2
D9
CB
1D
F9
04
26
05
EF
F6
08
EB
E4
FE
FE
DA
18
D9
04
29
2A
D5
C0
14
F8
2B
DF
0B
11
15
0B
E0
EE
F4
F0
FF
04
16
0D
C4
C9
22
17
1B
18
29
02
02
F5
D4
E7
1B
39
B2
D3
36
EA
EA
F1
EE
ED
DD
07
03
D4
EA
FB
27
D7
F6
09
EC
EC
1D
FA
F3
FC
D9
06
20
E8
04
11
02
2E
F2
E2
F1
CC
29
0E
03
F2
E2
FA
FE
00
EC
F4
00
11
E8
01
DA
1B
1D
02
21
0A
E9
F3
F2
1F
E5
09
FB
D8
1F
DB
0B
FB
02
FB
ED
10
0D
E6
0A
11
FC
08
F3
18
18
1B
FC
00
2A
F7
07
23
1A
E8
F0
DD
0A
E2
F4
CE
E7
F6
11
D3
F0
0D
DA
DA
F6
07
07
25
F6
14
00
F2
03
0F
C8
DB
E6
1A
17
0D
DB
28
18
2A
16
F2
0D
00
15
EB
DC
E2
F2
30
03
F4
EA
01
EC
FC
E5
E7
1F
D8
17
EA
00
0E
26
10
09
15
21
21
FC
E4
07
E3
0A
26
E6
E6
F7
D3
D6
E5
F1
25
F6
F7
D2
14
F2
21
0D
FB
F4
02
0A
FB
DE
30
0E
12
44
10
1C
23
14
10
16
0A
F5
03
CD
04
ED
FB
0C
07
07
03
E9
1E
EE
0B
04
0F
EB
17
D4
F6
F7
E1
F8
F4
EF
2B
29
09
13
FA
E7
FC
FD
F4
13
F6
05
09
1C
22
15
0B
E8
08
17
18
22
F9
EF
14
D9
02
01
05
E0
16
2C
0B
1A
E1
E3
25
02
FB
FD
F4
02
17
FB
0B
F7
03
39
32
F7
19
E9
E0
1F
EB
1B
16
F7
EF
13
01
ED
00
17
0A
04
01
0C
0B
01
0D
D8
1E
08
1F
FA
12
0B
E3
E8
0C
05
F5
19
16
D7
0C
0E
D7
FA
18
FD
11
13
14
E0
23
FB
11
04
0B
DA
F2
27
16
F5
F4
F9
0D
1C
F9
F0
F0
0B
F0
FA
15
0F
FD
D1
07
F0
FE
F8
13
ED
00
DC
13
F3
0E
F1
DD
DE
04
15
00
16
DD
0F
F7
F2
05
E0
F0
FC
0A
08
13
FE
F3
FA
F8
03
F9
04
EF
EA
F5
E7
15
0B
02
03
E9
DD
03
00
0C
09
D1
17
12
05
12
ED
08
20
F4
09
E6
E5
19
24
F1
0E
F9
1F
ED
19
29
EC
0A
FC
F5
ED
05
01
23
17
0D
11
E0
0F
16
12
E5
DD
E1
F4
FE
EA
11
08
14
07
FD
EA
13
04
17
E2
01
F2
2B
0F
FE
E1
EF
DE
F8
16
ED
13
D7
FB
1E
EF
DC
EE
EA
EA
01
0E
09
EC
03
01
06
F1
FC
F7
04
F9
06
D6
21
05
02
09
02
F3
F7
0B
F8
FC
E3
03
10
03
22
0D
15
F4
08
E1
0C
ED
1D
F0
FC
0B
0D
E8
F9
EE
FA
FF
04
05
FA
11
00
EF
12
FD
FD
F9
EB
F7
E4
31
18
F3
E3
01
EA
E3
F7
FD
EC
FC
EC
E8
16
08
F2
E7
05
05
11
0E
0F
13
0D
E0
07
14
0E
1C
12
E8
ED
0D
E5
D8
04
EC
F7
F4
FF
EE
04
EE
EB
F1
26
FB
E6
E7
FE
03
0B
FE
19
14
0D
07
E9
EB
EB
01
08
E1
E8
FD
17
CD
00
27
03
03
DE
0B
F7
0B
1A
F3
F8
1A
15
F3
10
ED
FA
EF
F0
0A
DC
0E
01
18
FA
17
EE
CB
E8
0A
E3
0F
F1
0F
1E
19
F4
10
FB
30
13
1C
F8
00
FD
18
EC
1B
E9
F1
F8
1A
FE
10
08
21
E8
2F
FB
01
04
F8
0C
01
D3
01
E9
17
DB
FA
21
E7
E8
06
FF
21
E3
22
14
12
ED
09
1C
ED
1A
F3
E0
05
E5
C8
E6
09
EC
02
F7
F4
E6
FF
19
FD
FE
F3
F9
EE
15
E6
FE
13
28
FB
18
20
11
E5
F6
14
17
17
1F
37
F7
2B
03
D8
E6
04
02
D4
03
1F
F2
24
FD
F1
F5
11
E4
27
1A
18
E9
F7
1F
E9
05
EF
14
29
09
F8
12
1C
03
FB
E6
F5
0F
EC
0D
0F
0A
FF
FE
12
0C
FD
EA
FE
EC
2A
F7
14
F9
E3
0D
D0
03
12
0B
E9
EB
17
DC
09
28
E7
1F
E5
15
16
0C
06
EE
33
2D
EE
F6
14
04
F7
0E
2B
07
DE
3D
D2
F9
1A
E3
F1
FB
26
17
EC
1B
1C
0B
FF
F9
EF
D6
05
EA
4D
05
2D
2B
11
11
E3
BF
E1
EB
43
D5
E6
2D
DD
F9
22
04
F8
FF
32
16
2C
E7
E9
FC
DD
1F
F7
E9
28
FA
4D
EC
2C
EF
E5
30
F5
11
E6
E0
1E
01
F8
1D
81
F2
F8
CF
DA
ED
46
F8
ED
FA
1B
2D
D0
FA
EC
ED
2D
1E
04
EF
3E
01
FE
DB
F1
DF
F8
E8
0B
E4
06
EF
F8
F2
FC
08
2B
1D
FA
EE
EC
F3
1D
21
D9
EF
F2
EA
0B
FF
19
F5
37
0D
F5
2E
DE
E9
12
21
F8
03
EB
EC
DB
17
F0
E7
2A
EF
1F
EE
14
12
24
F7
DF
1E
02
00
E7
D9
10
E1
17
00
E8
05
DC
F6
E9
FF
FB
F9
1E
11
1E
FF
DD
17
1E
0A
2D
0B
E2
0A
1E
2F
F8
1B
04
FF
2A
05
20
03
1E
EE
0C
EF
E6
05
F9
D8
18
D3
10
09
FD
1A
F2
1F
D5
04
F1
00
E4
D9
FB
11
18
00
03
E9
07
E0
0B
01
26
E2
FF
21
DB
F7
02
13
03
D9
22
F2
FD
16
F0
FF
02
03
12
EF
14
07
FB
08
0A
22
14
03
21
F9
32
ED
29
FA
F9
0E
05
D9
F1
12
F5
0E
EF
D5
02
1E
D2
F8
1A
15
07
11
03
CD
00
FB
CE
14
1F
05
27
F7
37
13
1A
E8
FC
EB
04
20
0E
00
0B
03
DB
FD
E9
1D
0D
F3
DC
0F
05
0B
09
14
DB
06
F9
FB
31
D2
3A
EA
37
E0
58
F5
FE
12
F7
D7
FB
EF
FE
DD
DD
04
EF
05
03
22
07
00
08
27
F4
F0
EF
33
ED
10
04
F6
06
EB
26
E3
3B
E6
06
FE
DE
32
D1
E8
17
F5
DE
FC
C8
37
E3
E1
D5
F9
34
01
FC
01
1C
F8
E3
11
D0
E8
14
E7
D7
D8
35
E4
0B
28
9B
17
EF
D5
19
27
BA
E6
BE
04
D7
17
C8
E6
ED
0D
0C
F7
08
1B
CD
E2
DA
9E
1F
E4
EE
05
CF
F9
D6
DC
F3
E7
CC
FD
E6
03
19
CA
CF
F6
DB
E9
E9
F2
FE
0A
E4
0A
F0
30
29
F9
E7
B9
0F
C9
F2
CC
28
E1
EA
DA
EE
09
D2
DA
1B
F8
19
BF
05
02
B9
CF
D2
13
EF
12
D8
D3
03
10
D6
07
E3
21
ED
E5
E4
32
06
EB
31
0A
10
F2
D2
1A
24
10
D6
E1
09
09
09
01
2A
0A
DD
ED
18
E9
D5
FB
08
24
33
E0
D3
22
2E
D3
EF
19
E1
14
E7
EF
E8
D5
D6
DC
F3
E9
00
EC
0D
F1
FD
D9
FA
03
E6
E3
FB
17
EE
1D
1A
B7
40
04
0F
F0
1D
ED
D4
F6
E0
10
FC
E6
F8
2D
C3
0A
B6
FC
E5
E8
EF
D4
22
34
13
09
F4
FF
FF
03
E6
D4
14
0C
F7
FB
F7
B7
D2
F7
2C
15
F6
20
FF
F8
F7
FE
2E
23
2A
05
E1
25
FC
0D
26
23
C5
0E
DB
09
10
05
D6
F2
17
08
23
06
1B
E1
21
FF
E8
ED
F5
13
17
08
E0
22
3C
D2
34
18
18
06
18
2A
ED
F1
D4
FF
31
E7
F1
EA
29
E5
04
1C
B5
10
EF
0E
F6
ED
E6
F2
B0
2E
E2
FD
CA
08
43
0B
CF
2A
42
E3
FD
29
C3
21
1B
FD
06
19
10
01
0E
ED
0F
E6
10
00
E5
06
00
FE
F3
F8
FA
E7
FA
EB
FB
FC
07
FC
F7
EE
CF
E9
01
0E
0C
0B
13
17
16
F1
10
1F
04
06
F5
F5
27
19
DC
02
E1
0B
DF
18
F2
FE
13
F1
1E
FE
05
EE
02
EF
1A
01
DF
EA
F6
26
18
0F
0C
0C
06
F5
18
F4
1D
20
F4
01
01
F6
DC
E0
21
14
0F
F6
F4
E1
16
1D
FC
F1
F3
24
12
F6
FB
E8
FE
DC
15
F4
FD
ED
0D
F5
02
ED
12
0C
DD
ED
CE
F9
E0
FA
02
08
F0
ED
06
E6
F2
FF
E1
EB
FE
0B
F7
0C
1D
F0
02
0C
10
09
04
FD
1B
EB
EF
02
F5
EC
DE
08
D4
F6
13
1D
20
F7
1E
1D
FB
F3
F3
F5
F8
00
EB
17
17
F4
0A
0C
E7
0C
10
FC
0C
22
1B
07
04
F4
EC
FD
FC
F1
03
0D
1A
FD
34
09
E9
02
ED
05
FA
ED
FA
E8
03
E0
08
0C
0A
08
F7
F9
EB
02
DE
08
EE
02
E1
14
CB
11
0B
14
01
09
02
07
E1
F2
01
FD
22
F7
EF
F5
FB
04
E2
01
E7
22
0F
FD
20
02
01
F0
F1
F6
E4
EF
D4
F7
05
09
F4
F8
1D
03
F7
F6
1B
FF
16
14
EE
10
F7
EA
EE
F3
F6
18
09
F7
04
05
F2
06
19
E7
F9
0B
F3
14
17
04
EE
EC
24
F0
1C
0A
12
09
EB
F1
25
12
22
E0
03
0D
20
00
12
FA
E0
07
11
E6
DB
EE
08
FE
F2
36
08
43
1A
F8
20
16
EB
10
03
1E
EF
01
06
FE
18
FF
05
10
0F
16
13
FC
FA
06
F2
F6
D2
01
EF
0A
E7
1F
17
F2
0B
0F
29
1D
12
2C
E6
F5
02
18
FD
00
39
14
FA
FC
10
E2
1B
14
0B
FA
E0
19
13
03
01
DC
11
0F
FE
10
21
04
0C
12
F3
24
FC
23
0C
0C
00
0C
11
FA
10
F0
08
F5
FD
E8
E7
E0
F6
03
D2
F6
ED
F2
17
21
07
2E
24
03
15
F0
EB
05
02
33
1B
E8
FA
21
F6
1D
0A
FB
F8
0C
1E
F3
04
04
EF
03
06
1A
0A
12
0C
27
12
00
14
F9
2B
E3
DF
FF
E1
0F
FB
E9
18
F9
2F
15
EF
E7
1E
EE
00
1A
F6
07
EB
19
F0
ED
F4
F2
01
2C
07
FF
E4
F7
EA
F1
0E
EF
10
05
E8
06
02
0A
1F
1F
ED
03
0B
04
12
F6
E7
E5
01
09
F9
17
F6
29
19
29
0E
1D
03
19
15
05
D7
FA
EA
13
F7
16
1E
11
16
FC
06
12
2A
F0
04
04
E4
E2
21
FC
FF
12
F5
DE
16
00
02
0B
0A
1C
FF
FC
F4
25
E5
20
02
F6
F2
29
F4
F3
06
E5
09
09
E8
11
03
06
EE
F1
0C
ED
13
09
02
06
05
00
1D
32
23
EF
13
F4
F2
05
2F
D7
16
2E
18
16
F2
18
DE
E3
18
13
F5
21
E8
E5
DB
FE
14
25
0B
E9
EF
F8
30
EC
0E
FD
0D
0F
F0
06
F7
FE
02
1F
E7
F1
11
2C
E7
ED
08
0D
12
F7
EA
0E
11
17
D9
E6
F1
0E
0E
06
FB
E9
13
DA
07
EE
09
FC
21
0A
0C
0F
01
FD
15
E2
F8
01
FB
F6
06
E5
1E
E2
FC
F6
22
DA
F3
F7
0C
06
FE
16
11
00
1C
E4
05
E6
31
DC
02
26
23
EE
14
EE
0B
09
E8
03
15
FB
D9
05
0C
F4
FE
FF
FE
F7
F8
F0
E9
E4
E8
06
C9
DE
20
1D
1A
E9
FF
EB
F4
16
DE
15
04
F8
10
19
F6
22
F0
16
06
F7
C9
EC
00
12
E7
00
E3
DE
10
0A
13
E4
F1
16
18
10
F1
F4
01
0B
D6
D9
DE
E2
DE
20
FE
E1
F5
08
F2
07
EC
14
D0
0B
EA
E5
08
F9
F0
00
00
F9
FE
F4
13
E6
13
F7
16
DE
1F
FE
E5
DF
E6
F3
ED
E7
EA
06
0A
EE
E7
E4
F3
13
0D
0A
E5
F5
05
0F
CC
0D
0B
1A
10
EA
0F
FD
DB
F4
02
1C
FA
F7
0C
0A
1C
F1
FF
E3
12
E5
F7
E9
EA
E8
01
F1
FE
03
14
07
03
EF
03
0F
30
E0
02
ED
0F
F5
00
F1
E7
F9
E4
36
0F
E0
EF
E6
FB
E7
ED
E7
E3
ED
04
07
F4
EB
E1
EB
F6
FB
08
D9
1A
03
21
C5
DE
E5
1A
EA
0D
DF
E5
22
28
11
22
14
1F
ED
F6
EF
0D
EA
C0
1B
EF
25
F2
D5
F8
1F
FF
E1
1E
D9
2B
E7
08
CD
F5
BB
EA
ED
02
EF
22
F9
31
EF
3B
D4
05
CF
25
E2
1D
FC
1A
08
E2
EA
3B
C1
F0
D5
26
E4
12
34
F2
24
E4
18
8C
F0
E6
13
13
2A
3A
B9
33
17
F3
D9
D7
C1
FF
F0
D7
AE
18
ED
FD
F2
11
06
BB
EE
F3
EE
C1
01
0F
D1
E1
B3
FB
E9
1A
F3
D7
DD
C4
FD
1B
05
08
A3
D3
17
34
DD
1F
DC
D0
1E
BF
06
08
27
DD
E6
DD
FD
B8
DE
19
F9
0E
E6
06
B8
E4
09
51
D7
D7
01
F4
F9
C7
F5
DD
E2
EB
F1
2E
E6
C0
0C
17
CB
EE
FC
D4
CB
2A
25
FB
D3
1D
0F
1E
0E
0C
17
07
D3
E5
3B
2D
08
0D
D9
0D
11
3A
18
BA
C8
DA
A9
0F
E8
1D
F1
25
1B
F7
04
25
D3
0B
13
10
CF
E0
A7
19
01
1A
FF
DA
D8
14
12
40
E4
EC
3C
E9
E9
D0
EB
D5
19
04
47
ED
C4
EE
C1
45
E5
F6
2B
19
F1
1C
31
FD
E7
E0
BE
FD
12
08
09
01
26
FB
24
5A
39
C7
EB
35
03
CE
14
EF
F1
0A
DA
EB
0C
3B
37
14
23
DD
CD
0B
1C
05
DA
FE
F1
1F
C6
A9
EF
FD
28
C6
F5
F7
D6
0D
F5
E9
19
0D
FB
08
E1
D3
F5
17
11
DC
E2
DF
E0
10
05
F8
F4
03
F0
FC
FF
22
00
09
E8
F6
E4
08
0E
05
09
E3
04
16
03
F6
E8
DB
0B
0C
13
0A
11
CC
02
0F
FF
21
02
E6
F9
0C
10
F7
03
08
EA
FD
E2
11
FD
FE
FD
FF
26
15
EF
00
DE
F8
0D
EC
01
FF
08
DB
E5
EE
E9
0B
F6
F8
07
0B
E1
06
FC
F3
08
FF
F3
06
0C
23
05
F5
1A
F0
F7
10
E8
DB
FD
FB
F9
05
EC
BD
E8
F8
15
12
FB
EB
0B
EE
21
0D
0C
0D
09
0D
0B
19
26
F7
E8
01
F8
09
0D
17
09
EB
E8
EF
0B
E5
FF
E6
E3
09
00
07
00
F6
E1
EF
F8
FF
E4
01
18
FC
F3
EA
1A
1C
F0
EA
03
EE
0B
F8
F8
CD
0C
04
13
FF
EE
19
E2
E0
F3
E1
0D
ED
FC
07
F0
01
D4
F5
0D
D8
F1
03
07
F8
08
26
FA
03
F6
F4
16
FE
10
F7
02
E9
00
CE
F7
00
EA
DD
F2
1C
EC
F7
FA
FF
20
EE
11
19
EF
08
FA
F3
DF
1E
08
04
ED
F7
F7
EA
10
03
0F
E6
DE
E0
F0
E4
03
E7
EA
01
EF
0E
E4
2C
00
EB
0B
FC
0E
F3
01
14
DF
1E
0E
1D
E8
0B
F0
D6
04
05
F0
E8
DC
EC
10
CE
01
FC
F5
EA
F1
F4
F0
06
EF
EC
EE
C8
ED
FB
10
F0
02
01
DD
22
D5
2C
06
15
F5
1D
E8
05
E4
36
1C
DD
FD
1E
F8
E6
02
00
18
CF
EF
EE
2D
0B
D1
C4
DD
16
02
1A
14
07
0F
FF
14
F3
19
0F
1F
22
12
01
11
FD
11
EA
13
0A
13
FB
2C
F2
02
F8
14
D6
DE
09
06
EE
16
E0
E1
0D
FD
11
CF
E8
01
F9
2E
FA
00
0B
15
1B
F6
EF
1C
DC
15
E6
FE
DC
FA
0F
01
17
E1
1E
E1
FF
FB
FF
F6
12
F3
27
F6
F0
09
05
14
01
08
3D
FD
FF
20
10
E6
D4
0A
0C
07
D3
E5
1E
07
01
F9
C6
07
10
14
EE
2D
E1
03
FB
12
EC
FC
E5
1C
23
04
31
0F
16
FD
08
36
0B
CF
DE
1F
03
40
2A
02
EB
F3
11
E3
18
04
B9
08
EB
F2
FF
FB
E6
E3
E7
16
E2
00
FB
11
E2
D4
F0
06
0A
FA
E8
04
E3
FB
13
FA
29
DD
25
17
E6
17
EA
EA
FD
E8
32
0F
E0
1E
23
E2
0A
CE
2A
12
E2
1E
F6
17
07
F4
0A
08
F5
04
05
16
0E
EF
E4
F2
0D
19
12
07
12
E3
FE
F6
E2
EE
F0
0D
1C
DA
0A
FD
21
FE
15
01
08
E4
05
29
E6
17
2B
E4
13
DA
01
DC
F6
07
E1
03
E8
22
03
11
E3
E2
22
13
31
10
19
02
2F
05
01
EB
00
13
DC
FB
EB
FD
E4
0C
FF
EF
2F
EE
F5
E2
13
D8
0B
F1
F1
EC
18
09
DE
DE
DC
E1
E7
0C
4E
BF
09
13
03
E1
D9
0C
13
00
F0
C7
E7
04
F3
EB
C7
E3
2D
D6
E3
D2
1A
DD
34
CC
C2
0A
EB
E0
05
18
33
D5
F0
31
F1
EF
E8
C2
05
F5
FF
F3
F1
FE
CA
BF
FA
E6
06
D2
D6
CA
06
0F
05
DA
EF
F6
0B
1C
00
F2
DB
BE
F9
0A
EB
F8
B4
FE
06
23
0E
01
06
E4
E9
D0
05
F3
F8
E5
06
F1
0B
F1
19
E0
F6
1B
17
29
03
D1
F8
F4
22
FC
F4
05
08
27
03
0F
FA
01
E2
1A
01
EA
2E
01
0A
B9
EF
DA
02
33
FC
C9
E9
25
F8
D8
DC
EC
03
F1
DA
0D
15
11
18
02
EC
F7
21
DD
E8
1B
03
15
EE
F3
1D
D9
D7
F3
06
D7
11
F4
13
1F
11
05
27
DA
F8
EF
F7
23
B8
1C
D5
2F
E2
D7
09
13
0D
24
E4
03
0F
02
2D
F8
FC
18
21
01
01
DA
CC
F7
E5
FA
16
E8
F8
E6
EF
DD
1C
E3
05
F5
07
02
F5
21
D6
1D
28
04
01
E7
31
07
D6
E5
DF
0C
0B
0D
C5
0A
E4
C9
EE
DF
DF
F5
BD
F7
1D
25
FA
16
D4
41
1F
F4
FF
F9
03
28
DE
ED
0C
05
0A
02
DA
CA
F9
16
FD
E8
0A
E6
EA
F3
ED
F0
C1
FB
05
E7
E6
16
E0
29
39
F9
1C
D1
BD
10
E7
E7
11
0C
0C
18
1C
01
F0
DD
F0
11
FD
04
D4
1C
3C
B6
18
00
DD
CB
FB
19
01
24
1E
CC
05
DF
0C
F5
1C
04
1B
11
14
EC
1D
00
08
E8
E0
FA
EF
EF
0C
EE
26
CC
10
0D
F1
CA
FA
EE
02
EC
13
F2
F5
FF
EB
F3
17
04
1E
1F
18
02
17
DD
FF
D2
F1
DB
09
11
02
0C
F3
01
E0
25
E9
F5
EB
06
0C
F3
FC
FA
09
FE
EA
0E
25
F2
00
10
0C
1C
0B
F6
E0
F5
DD
EE
EE
F6
00
14
21
E3
24
0C
EF
F4
DF
02
1F
2B
DC
DF
0A
EC
0B
07
01
D9
E1
FD
13
F1
00
EE
FE
E3
F5
E9
0B
E8
EB
0E
2E
F4
03
15
E4
FA
DD
14
ED
20
F2
05
F6
0D
E7
12
29
0B
EF
0D
33
E9
1C
E1
0A
FB
04
07
FD
1B
0D
08
06
EA
10
E0
1F
D9
0C
E2
F9
F2
08
E2
07
09
13
01
FE
BE
1C
FE
20
14
30
D7
D8
D7
15
18
F1
F4
E9
E4
22
D1
08
01
F8
EC
ED
F3
EE
ED
07
EB
F0
F5
0B
19
27
F5
03
13
13
EF
EF
F3
0C
05
FB
E9
11
E5
E1
EA
1F
07
E4
13
E6
CA
E3
E2
E3
14
12
E9
D9
FA
04
E3
09
E6
00
F0
18
EB
03
E6
0E
10
E6
1E
EF
F2
E6
F4
06
08
FD
1A
E3
0F
1E
EB
E9
08
04
1D
F5
E5
09
12
F7
0A
EB
0A
F9
F4
F9
17
DB
E2
FB
0A
F8
15
F9
F5
E9
F4
12
F5
07
F8
09
E8
FA
0A
0E
03
F6
ED
F8
12
EB
EA
FE
10
11
F2
05
18
F2
0F
FD
ED
03
00
16
EA
F4
02
E4
15
EE
08
0F
06
0E
18
F5
E9
E9
02
EA
0B
F7
0B
ED
F5
09
E9
0B
09
F3
F1
00
F4
E2
11
06
FA
08
11
07
05
00
02
0B
04
F6
07
F1
EC
F9
EF
FC
F7
F4
02
F7
06
15
E4
03
FB
E6
F9
07
0D
11
F5
E9
E4
E5
03
F7
12
EB
09
10
19
FC
F5
FF
1B
EA
DD
09
F4
0B
04
F3
0D
F3
0F
E8
02
FB
F3
07
03
15
F0
FE
04
0D
02
06
06
E8
F9
02
FB
02
F6
02
F6
FD
F8
FD
EA
FF
1D
E8
06
F4
F9
