FB
00
41
2F
A9
3A
18
A6
97
54
9C
4D
D9
72
40
BD
4D
61
61
D4
1E
9A
28
27
AA
26
CC
54
F0
BB
DD
60
6F
09
68
5F
11
F4
A2
3C
0B
6F
B0
D5
89
E8
C7
2F
DE
29
F8
1A
87
92
B3
C7
42
CE
14
22
E4
B2
F5
0E
17
D3
30
C8
A4
AE
17
23
4C
A2
D3
46
E6
22
65
7A
65
3F
F5
7E
6B
AB
FC
E9
9F
2B
4C
56
1C
E5
4C
D0
AB
B6
B9
B9
4B
1E
3D
9F
E3
BA
3C
D9
DB
58
21
28
D6
4C
17
A1
F4
F7
48
B2
F4
AF
01
F2
03
DB
FD
1F
4A
F0
4E
15
2E
34
20
EE
B2
4F
D3
1B
6B
67
6E
C0
11
F7
CA
10
CD
2A
C7
1D
BB
28
B1
FA
E1
BE
2B
1F
E1
BA
DC
19
00
F4
F7
5C
9B
EB
99
93
BB
87
59
57
52
5E
68
E5
92
47
5A
69
C6
D7
2C
A1
0F
FF
B7
FB
06
07
AB
C9
43
5E
A7
AD
FC
0A
28
0E
6D
2F
04
D4
06
97
D1
4D
2A
1D
E0
3F
17
C0
17
1F
44
DC
01
58
B2
1A
0B
B0
08
BA
22
DD
A0
FF
D2
1E
BF
60
46
3B
E6
25
C0
3E
D5
40
D4
DC
BF
B7
14
2A
56
35
2C
A2
47
93
4E
29
36
25
45
D4
E9
81
C5
BA
0D
36
E4
C4
B1
6D
EE
C1
A7
59
18
EF
A6
3B
3F
AE
6A
F3
BB
5A
E5
FD
13
C7
11
10
08
FC
18
F0
E3
FE
4C
A9
C0
F2
57
9A
A8
F5
EE
F9
12
AB
D8
5B
A0
4E
3E
06
C9
57
35
3A
4B
3B
AA
76
52
E1
51
AF
30
60
A0
51
EA
6E
64
61
33
B6
BB
A4
1E
43
9E
9C
46
1D
A5
F9
A1
C2
18
21
0E
D2
C3
0F
1B
43
CE
C4
F6
E6
D9
33
06
2B
5A
45
03
D8
E6
BA
18
03
A3
B0
3A
C8
E6
73
E4
62
3D
77
BC
5D
D1
F6
CF
05
08
6A
06
27
EC
8C
46
91
AA
B5
B0
CC
2D
1F
CF
FC
2A
23
9D
47
FF
96
CB
01
2B
3A
06
BC
FC
C5
12
31
B9
1A
D7
2F
B4
52
BA
41
